node {
  name: "global_step/Initializer/Const"
  op: "Const"
  attr {
    key: "_class"
    value {
      list {
        s: "loc:@global_step"
      }
    }
  }
  attr {
    key: "_output_shapes"
    value {
      list {
        shape {
        }
      }
    }
  }
  attr {
    key: "dtype"
    value {
      type: DT_INT64
    }
  }
  attr {
    key: "value"
    value {
      tensor {
        dtype: DT_INT64
        tensor_shape {
        }
        int64_val: 0
      }
    }
  }
}
node {
  name: "global_step"
  op: "VariableV2"
  attr {
    key: "_class"
    value {
      list {
        s: "loc:@global_step"
      }
    }
  }
  attr {
    key: "_output_shapes"
    value {
      list {
        shape {
        }
      }
    }
  }
  attr {
    key: "container"
    value {
      s: ""
    }
  }
  attr {
    key: "dtype"
    value {
      type: DT_INT64
    }
  }
  attr {
    key: "shape"
    value {
      shape {
      }
    }
  }
  attr {
    key: "shared_name"
    value {
      s: ""
    }
  }
}
node {
  name: "global_step/Assign"
  op: "Assign"
  input: "global_step"
  input: "global_step/Initializer/Const"
  attr {
    key: "T"
    value {
      type: DT_INT64
    }
  }
  attr {
    key: "_class"
    value {
      list {
        s: "loc:@global_step"
      }
    }
  }
  attr {
    key: "_output_shapes"
    value {
      list {
        shape {
        }
      }
    }
  }
  attr {
    key: "use_locking"
    value {
      b: true
    }
  }
  attr {
    key: "validate_shape"
    value {
      b: true
    }
  }
}
node {
  name: "global_step/read"
  op: "Identity"
  input: "global_step"
  attr {
    key: "T"
    value {
      type: DT_INT64
    }
  }
  attr {
    key: "_class"
    value {
      list {
        s: "loc:@global_step"
      }
    }
  }
  attr {
    key: "_output_shapes"
    value {
      list {
        shape {
        }
      }
    }
  }
}
node {
  name: "Const"
  op: "Const"
  attr {
    key: "_output_shapes"
    value {
      list {
        shape {
          dim {
            size: 354
          }
        }
      }
    }
  }
  attr {
    key: "dtype"
    value {
      type: DT_DOUBLE
    }
  }
  attr {
    key: "value"
    value {
      tensor {
        dtype: DT_DOUBLE
        tensor_shape {
          dim {
            size: 354
          }
        }
        tensor_content: "\344,\354i\207\277\320?\210c]\334F\003\345?U\336\216pZ\360\001@\313\370\367\031\027\016\274?\n\334\272\233\247:\274?\255n\365\234\364\276\241?\377\004\027+j\260\021@1%\222\350e4\033@\226>tA}\213\r@\223W\347\030\220\275\216?\336\223\207\205Z\223\r@\1770\360\334{\270\314?Dn\206\033\360\371\261?\260U\202\305\341\254\022@\3377\276\366\314\222\240?\021p\010Uj\226\022@0*\251\023\320d8@\207\242@\237\310\223\363?\260U\202\305\341\314\313?\221,`\002\267\356\276?\3377\276\366\314\222\003@\303\330B\220\203\022\276?\201[w\363T\'\020@\320\263Y\365\271Z.@\202sF\224\366\346\'@[\323\274\343\024\r6@\350\301\335Y\273\355\312?Qf\203L2r\206?\354\027\354\206m\213\262?\200\267@\202\342\'\'@\234\242#\271\374\207\322?O\314z1\224\023\344?\t\212\037c\356\372P@->\005\300x\006\362?A\361c\314]\013+@I\272f\362\3156\267?\376e\367\344a\221I@\347\000\301\034=~\257?\253\347\244\367\215\257\235?l\317,\tPS\303?\371\367\031\027\016\204\264?\346\221?\030x\356\305?i\000o\201\004\305\303?\355\273\"\370\337J\226?\027\267\321\000\336\202\002@}\263\315\215\351\t\313?333333\354?*\221D/\243\230\003@\003CV\267zN\262?\016\2760\231*\030\351?\246\325\220\270\307r#@\217\344\362\037\322\3170@\366]\021\374o%\253?M\241\363\032\273D\265?gDio\360\2457@\215\013\007B\262\200\251?\234\341\006|~\250\"@\264Y\365\271\332\252,@\264Y\365\271\332\252,@4\235\235\014\216\222\031@#\370\337Jvl\264?\327\206\212q\376&\344?\315;N\321\221\\\326?_\014\345D\273\n\305?\366\356\217\367\252\225\356??W[\261\277,&@_)\313\020\307\232)@g\270\001\237\037F\334?\316\337\204B\004\034\242?\031\347oB!\002\350?G\254\305\247\000\310\"@u\002\232\010\033\236\322?\217\307\014T\306\277\325?\210\205Z\323\274c\020@2U0*\251\323+@\233\217kC\3058\237?\345\355\010\247\005\177 @\262KTo\rl\323?\314bb\363qm\260?V}\256\266b\177\345?\277`7l[\224\231?\212\216\344\362\037R&@+\030\225\324\th\306?\t3m\377\312J\243?(a\246\355_Y\301?A\016J\230i\373\247?1\010\254\034Z\304\026@b\241\3264\357x,@\010\346\350\361{\233\316?P6\345\n\357\362\002@\253>W[\261\277/@d\222\221\263\260\'\032@)\\\217\302\365(\264?;\215\264T\336\216\310?-x\321W\220f\314?{\332\341\257\311\032\265?\220\332\304\311\375\016\245?\214\271k\t\371\240\327?\350\331\254\372\\m\265?Yni5$\356\241?|\270\344\270S:\320?\372~j\274t\223.@\267b\177\331=\331\033@A\237\310\223\244k\246?\017bg\n\235\327\300?\212\223\373\035\212\002\311?\203i\030>\"\246\324?\010wg\355\266\013\265?\035=~o\323\237\265?\210\235)t^c\317?u\310\315p\003>\277?\253\t\242\356\003\220\252?\223W\347\030\220\275\216?\346\005\330G\247\256\254?B>\350\331\254\372\254?\342\314\257\346\0001#@}\320\263Y\365\031,@\343\252\262\357\212\340\237?\177\373:p\316\210\322?2ZGU\023D\275?\351\361{\233\376l\r@\205|\320\263Y\365\301?\010=\233U\237\253\343?\204*5{\240\245#@\rq\254\213\333H\027@\266\370\024\000\343\031\300?\323\366\257\2544)\311?q=\n\327\243p\235?f1\261\371\2706\264?\375\274\251H\2051\001@\237q\341@H\026\363?\2201w-!\037\224?\321W\220f,\232\266?h\005\206\254n\365\264??\035\217\031\250\214\257?\252\202QI\235\200\302?<\203\206\376\t.\266?x\234\242#\271\324B@j\207\277&k\324\325?#gaO;\374\245?\025\221a\025od\332?\r\032\372\'\270X\311?kH\334c\351C\247?\232\231\231\231\231\231\271?\rq\254\213\333\2306@]\376C\372\355\2333@Hm\342\344~\207\302?t$\227\377\220~(@\314\356\311\303B\255\261?Z\273\355Bs\235\246?\345\355\010\247\005/\306?#J{\203/\314\016@yX\2505\315\0139@\r\340-\220\240\370\241?/n\243\001\274\0254@\300\004n\335\315S\215?\217\337\333\364g?\320?\205\261\205 \007%\254?\325\347j+\366\227\255?\341@H\0260\201\253?Uj\366@+0\264?MJA\267\2274\246?;\001M\204\rO\t@\331=yX\250\0252@k\324C4\272\343\020@k`\253\004\213\303\325?\344f\270\001\237?\023@c\321tv2\270\363?\371\240g\263\352s\305?\236\357\247\306Kw$@D\372\355\353\3009\347?\201&\302\206\247W\272?\3578EGr\371\317?\241J\315\036h\005\246?\240\211\260\341\351\225\320?\312\303B\255i\336\301?\335^\322\030\255c\r@\314@e\374\373\214\337?[\261\277\354\236<\254?\257Z\231\360K\375\264?;\215\264T\336\356#@\'\302\206\247W\312\330?\311\253s\014\310^\257?\215\234\205=\355\360\367?\001\336\002\t\212\1772@\020@j\023\'\367\233?\321W\220f,\232\341?\354/\273\'\017\013\225?\206U\274\221y\344\321?\306\341\314\257\346\000\261?\304\010\341\321\306\021\273?\214\333h\000o\201\372?\322\373\306\327\236Y\242?\351&1\010\254\034\302?\312\246\\\341].\242?n4\200\267@\202\242?\213\246\263\223\301Q\242?\201[w\363T\007\364?\273~\301n\330\266\300?\367\314\222\00055\366?,e\031\342X7&@M\370\245~\336\024\000@\270\257\003\347\214(\265?I\272f\362\3156\325?\'\240\211\260\341\351\305?R~R\355\323\361\270?\366]\021\374o%\323?\350\237\340bE\r\302?\324+e\031\342X\247?\273\325s\322\373&\031@\200\202\213\0255\230\266?\341\013\223\251\202\221\n@\344\024\035\311\345\037$@\313\271\024W\225\235\035@w\020;S\350<\006@\000:\314\227\027`\364?\311v\276\237\032/\341?\"\303*\336\310<\357?\003[%X\034\316\371?\316\245\270\252\354\273\242?\340\333\364g?R\304??RD\206U\274\350?d#\020\257\353w\035@\273\270\215\006\360v\"@\177\274W\255L\370\037@\303G\304\224H\002\037@c\234\277\t\205\010\260?\225+\274\313E|\365?\225\361\3573.\034\310?9b->\005\300\304?\266\333.4\327i\310?\200\267@\202\342\247<@Q\024\350\023y\222\224?Dio\360\205\331#@\002Hm\342\344~\267?kH\334c\351C\353?\3230|DL\211\244?\347\030\220\275\336\375\271?R\325\004Q\367\001\270?$EdX\305\033\325?\232%\001jj\331\212?\267E\231\r2\311\314?q\254\213\333h\340,@\200`\216\036\277\267\251?J\265O\307c\006\252?\034\360\371a\204\360\260?S\313\326\372\"\241\335?,H3\026Mg\313?\007_\230L\025,\025@N\356w(\n\364\261?\331Z_$\264\345\352?\2201w-!\237\366?\215\356 v\246\320\271?\262\235\357\247\306K\341?4\277\232\003\004S\026@:z\374\336\246?\303?\327\335<\325!\027\034@\000\343\0314\364O\300?\0054\0216<\3158@\300\347\207\021\302\243\255?-!\037\364lV\275?\027\361\235\230\365b\300?\313\204_\352\347M\370?2\311\310Y\330\323\324?\202\220,`\002\267\266?\034_{fI\200\345?\264\223\301Q\362\352\326?_\007\316\031Q\332\213?\231d\344,\354i\367?\r\303G\304\224H\341?\276\331\346\306\364\204\245?#\241-\347R|\023@o*Ral!\314?\241\271N#-\325\026@\361\272~\301n\330\246?\3745Y\243\036\242\261?\205\0108\204*5\263?{1\224\023\355*\022@\024\355*\244\374\244\212?\177\244\210\014\253x\307?\337\375\361^\2652\241?vq\033\r\340\3351@g\270\001\237\037F\250?M\363\216St$\351?\375M(D\300!\244?H\277}\0358g\002@\267\234KqU\331\341?\322\000\336\002\t\n\360?\313\326\372\"\241-\247?\2343\242\2647\370\242?F\261\334\322jH\214?H\371I\265O\007\003@\363v\204\323\202\027\341?\367\257\2544)e\021@,e\031\342X\2674@\004\377[\311\216\215\260?\231\323e1\261\371\300?!\223\214\234\205=\321?d#\020\257\353\027\332?\201&\302\206\247W\262?-\262\235\357\247\306\253?\314]K\310\007-C@?\035\217\031\250\214\014@\036\376\232\254Q\017\261?\004s\364\370\275M\267?aO;\37459\022@\224\301Q\362\352\034\303?\034\010\311\002&\260\036@\273\'\017\013\265\306\031@w\241\271N#-\321?W`\310\352V\317\301?\325\004Q\367\001H\315?\224j\237\216\307\014\330?\310$#gaO\303?1\261\371\2706T\300?tA}\313\234\316\024@\001\366\321\251+\337\005@\321\226s)\256*\273?\270\222\035\033\201x\265?\323\244\024t{I\273?Ve\337\025\301_\"@\017\326\3779\314\027\362?g\233\033\323\023\226\270?\326\305m4\200\337F@1\010\254\034Zd\007@\204d\001\023\270u\267?\345\3259\006d\257\267?[\353\213\204\266\234\327?\241\241\177\202\213\025\323?\376\324x\351&1\300?\257\261KTo\r\254?\004\377[\311\216\215\300?0L\246\nF\325#@S\256\360.\027\361\305?\372\263\037)\"\303\306?k\324C4\272\303\025@\347\251\016\271\031n\336?\024\355*\244\374\244\340?\003\354\243SW>\307?\212Y/\206r\242\305?\336Y\273\355Bs\275?\031\377>\343\302\201\342?\367\344a\241\3264\267?\347\343\332P1\316\267?\004\342u\375\202\335\260?\332\003\255\300\220\225!@\373\221\"2\254\342\333?\231\r2\311\310Y\270?e\215z\210F\367!@b\204\360h\343\010\003@_$\264\345\\\252\026@\333m\027\232\3534\222?V\202\305\341\314\257\351?\326\342S\000\214g\300?"
      }
    }
  }
}
node {
  name: "Const_1"
  op: "Const"
  attr {
    key: "_output_shapes"
    value {
      list {
        shape {
          dim {
            size: 354
          }
        }
      }
    }
  }
  attr {
    key: "dtype"
    value {
      type: DT_DOUBLE
    }
  }
  attr {
    key: "value"
    value {
      tensor {
        dtype: DT_DOUBLE
        tensor_shape {
          dim {
            size: 354
          }
        }
        tensor_content: "\000\000\000\000\000\000\000\000\000\000\000\000\000\0004@\000\000\000\000\000\000\000\000\000\000\000\000\000\000\000\000\000\000\000\000\000\0009@\000\000\000\000\000\200A@\000\000\000\000\000\000\000\000\000\000\000\000\000\000\000\000\000\000\000\000\000\000\000\000\000\000\000\000\000\200V@\000\000\000\000\000\000\000\000\000\000\000\000\000\000\000\000\000\000\000\000\000\000\000\000\000\000\000\000\000\000\000\000\000\000\000\000\000\000\000\000\000\000\000\000\000\000\000\000\000\000\000\000\000\000\000\000\000\000\000\000\000\000\000\000\000\000\000\000\000\000\000\000\000\000\000\000\000\000\000\000\000\000\000\000\000\000\000\000\000\000\000\000\000\000)@\000\000\000\000\000\000\000\000\000\000\000\000\000\000\000\000\000\000\000\000\000\000\000\000\000\000\000\000\000\000\000\000\000\000\000\000\000\0004@\000\000\000\000\000\200K@\000\000\000\000\000\000N@\000\000\000\000\000\000\000\000\000\000\000\000\000\000\000\000\000\000\000\000\000\000\000\000\000\000\000\000\000\000\000\000\000\000\000\000\000\000\000\000\000\000\000\000\000\000\000\000\000\000\000\000\000\200F@\000\000\000\000\000\000\000\000\000\000\000\000\000\000\000\000\000\000\000\000\000\000D@\000\000\000\000\000\000\000\000\000\000\000\000\000\000\000\000\000\000\000\000\000\000\000\000\000\000\000\000\000\0009@\000\000\000\000\000\240T@\000\000\000\000\000\000\000\000\000\000\000\000\000\000)@\000\000\000\000\000\000\000\000\000\000\000\000\000\000\000\000\000\000\000\000\000\000\000\000\000\000\000\000\000\000\000\000\000\000\000\000\000\000\000\000\000\000\000\000\000\000\000\000\000\000\000\000\000\000\000\000\000\000\000\000\000\000\000\000\000\000\000\000\000\000\000\000\000\000\000\000\000\0005@\000\000\000\000\000\000\000\000\000\000\000\000\000\000\000\000\000\000\000\000\000\000\000\000\000\000\000\000\000\000\000\000\000\000\000\000\000\000D@\000\000\000\000\000\000\000\000\000\000\000\000\000\000\000\000\000\000\000\000\000\0006@\000\000\000\000\000\000\000\000\000\000\000\000\000\000\000\000\000\000\000\000\000\000\000\000\000\000\000\000\000\000\000\000\000\000\000\000\000\000A@\000\000\000\000\000\000\000\000\000\000\000\000\000\000\000\000\000\000\000\000\000\000\000\000\000\000\000\000\000\0006@\000\000\000\000\000\000\000\000\000\000\000\000\000\000\000\000\000\000\000\000\000\200K@\000\000\000\000\000\000\000\000\000\000\000\000\000\000\000\000\000\000\000\000\000\000\000\000\000\000\000\000\000\000\000\000\000\000\000\000\000\000\000\000\000\000\000\000\000\000\000\000\000\000\000\000\000\000\000\000\000\000\000\000\000\000T@\000\000\000\000\000\000)@\000\000\000\000\000\000\000\000\000\000\000\000\000\000\000\000\000\000\000\000\000\000\000\000\000\000\000\000\000\000\000\000\000\000\000\000\000\000\000\000\000\000\000\000\000\000\000\000\000\000\000\000\000\000\000\000\000\000\000\000\000\200F@\000\000\000\000\000\000\000\000\000\000\000\000\000\0004@\000\000\000\000\000\000>@\000\000\000\000\000\0009@\000\000\000\000\000\000\000\000\000\000\000\000\000\200F@\000\000\000\000\000\000T@\000\000\000\000\000\000\000\000\000\000\000\000\000\000\000\000\000\000\000\000\000\000\000\000\000\000\000\000\000\000T@\000\000\000\000\000\000\000\000\000\000\000\000\000\000\000\000\000\000\000\000\000\000\000\000\000\000\000\000\000\0006@\000\000\000\000\000\000\000\000\000\000\000\000\000\000\000\000\000\000\000\000\000\000\000\000\000\000\000\000\000\000\000\000\000\000\000\000\000\000T@\000\000\000\000\000\000\000\000\000\000\000\000\000\000\000\000\000\000\000\000\000\000\000\000\000\000\000\000\000\000\000\000\000\000\000\000\000\000\000\000\000\000\000\000\000\000\000\000\000\000\000\000\000\000\000\000\000\000\000\000\000\000\000\000\000\000\000\000\000\0006@\000\000\000\000\000\000\000\000\000\000\000\000\000\000\000\000\000\000\000\000\000\000\000\000\000\000\000\000\000\200F@\000\000\000\000\000\0006@\000\000\000\000\000\000<@\000\000\000\000\000\000\000\000\000\000\000\000\000\000\000\000\000\000\000\000\000\000\000\000\000\000\000\000\000\000T@\000\000\000\000\000\000)@\000\000\000\000\000\000\000\000\000\000\000\000\000\000\000\000\000\000\000\000\000\000)@\000\000\000\000\000\200F@\000\000\000\000\000\000\000\000\000\000\000\000\000\000\000\000\000\000\000\000\000\000<@\000\000\000\000\000\000\000\000\000\000\000\000\000\000\000\000\000\000\000\000\000\000\000\000\000\000\000\000\000\000A@\000\000\000\000\000\000\000\000\000\000\000\000\000\000\000\000\000\000\000\000\000\000\000\000\000\000\000\000\000\000\000\000\000\000\000\000\000\000\000\000\000\000\000\000\000\200Q@\000\000\000\000\000\000\000\000\000\000\000\000\000\000\000\000\000\000\000\000\000\000\000\000\000\000\000\000\000\300W@\000\000\000\000\000\000\000\000\000\000\000\000\000\000Y@\000\000\000\000\000\000\000\000\000\000\000\000\000\000\000\000\000\000\000\000\000\000\000\000\000\000\000\000\000\000\000\000\000\000\000\000\000\000T@\000\000\000\000\000\0005@\000\000\000\000\000\000\000\000\000\000\000\000\000\000\000\000\000\000\000\000\000\000\000\000\000\000\000\000\000\000\000\000\000\000\000\000\000\000\000\000\000\000\000\000\000\000\000\000\000\000\000\000\000\000\000\000\000\000\000\000\000\000\000\000\000\000\000\000\000\000\000\000\000\000\000\000\000\000>@\000\000\000\000\000\000\000\000\000\000\000\000\000\000T@\000\000\000\000\000\000\000\000\000\000\000\000\000\000\000\000\000\000\000\000\000\000\000\000\000\000\000\000\000\000\000\000\000\000\000\000\000\200@@\000\000\000\000\000\000\000\000\000\000\000\000\000\000\000\000\000\000\000\000\000\000\000\000\000\000\000\000\000\000D@\000\000\000\000\000\000\000\000\000\000\000\000\000\000\000\000\000\000\000\000\000\000\000\000\000\000\000\000\000\0004@\000\000\000\000\000@U@\000\000\000\000\000\000\000\000\000\000\000\000\000\000\000\000\000\000\000\000\000\000\000\000\000\000\000\000\000\000\000\000\000\000\000\000\000\000T@\000\000\000\000\000\000\000\000\000\000\000\000\000\0009@\000\000\000\000\000\000T@\000\000\000\000\000\0004@\000\000\000\000\000\000\000\000\000\000\000\000\000\000\000\000\000\000\000\000\000\000\000\000\000\000\000\000\000\000\000\000\000\000\000\000\000\000\000\000\000\000\000\000\000\000\000\000\000\000\000\000\000\000\000\000\000\000\000\000\000\000\000\000\000\000\000\000\000\000\000\000\000\000\000\000\000\0004@\000\000\000\000\000\000\000\000\000\000\000\000\000\000\000\000\000\000\000\000\000\000\000\000\000\000\000\000\000\000\000\000\000\000\000\000\000\000\000\000\000\000\000\000\000\000\000\000\000\000\000\000\000\000\000\000\000\000\000\000\000\000\000\000\000\000\000\000\000\000\000\000\000\000\000\000\000\000\000\000\000\000\000\000\000\000\000\000\000\000\000\000\000\000\000\000\000\000\000\000\000\0009@\000\000\000\000\000\000\000\000\000\000\000\000\000\000\000\000\000\000\000\000\000\000\000\000\000\000\000\000\000\000\000\000\000\000\000\000\000\000\000\000\000\000\000\000\000\000\000\000\000\000\000\000\000\000\000\000\000\000\000\000\000\000\000\000\000\000\000\000\000\000\000\000\000\000\000\000\000\0004@\000\000\000\000\000\0006@\000\000\000\000\000\000\000\000\000\000\000\000\000\300W@\000\000\000\000\000\000\000\000\000\000\000\000\000\000\000\000\000\000\000\000\000\000\000\000\000\000\000\000\000\000T@\000\000\000\000\000\000\000\000\000\000\000\000\000\000)@\000\000\000\000\000\000\000\000\000\000\000\000\000\200V@\000\000\000\000\000\000)@\000\000\000\000\000\000\000\000\000\000\000\000\000\200A@\000\000\000\000\000\000\000\000\000\000\000\000\000\000\000\000\000\000\000\000\000\000\000\000\000\000\000\000\000\0006@\000\000\000\000\000\000\000\000\000\000\000\000\000\000\000\000\000\000\000\000\000\000\000\000\000\000\000\000\000\000\000\000\000\000\000\000\000\000\000\000\000\000\000\000\000\0004@\000\000\000\000\000\000\000\000\000\000\000\000\000\000\000\000\000\000\000\000\000\000\000\000\000\000\000\000\000\000\000\000\000\000\000\000\000\000\000\000\000\000\000\000\000\000)@\000\000\000\000\000\0004@\000\000\000\000\000\000\000\000\000\000\000\000\000\000\000\000\000\000\000\000\000\000\000\000\000\000\000\000\000\0005@\000\000\000\000\000\000\000\000\000\000\000\000\000\000\000\000\000\000\000\000\000\300R@\000\000\000\000\000\000\000\000\000\000\000\000\000\0004@\000\000\000\000\000\000<@\000\000\000\000\000\000\000\000\000\000\000\000\000\000\000\000\000\000\000\000\000\000\000\000\000\000\000\000\000\0009@\000\000\000\000\000\000\000\000\000\000\000\000\000\200@@\000\000\000\000\000\000\000\000\000\000\000\000\000\200A@\000\000\000\000\000\000\000\000\000\000\000\000\000\300R@\000\000\000\000\000\000\000\000\000\000\000\000\000\000\000\000\000\000\000\000\000\0004@\000\000\000\000\000\000\000\000\000\000\000\000\000\000\000\000\000\000\000\000\000\000\000\000\000\000\000\000\000\000\000\000\000\000\000\000\000\000\000\000\000\000\000\000\000\0004@\000\000\000\000\000\000T@\000\000\000\000\000\000\000\000\000\000\000\000\000\0004@\000\000\000\000\000\000\000\000\000\000\000\000\000\000\000\000\000\000\000\000\000\200Q@\000\000\000\000\000\000\000\000\000\000\000\000\000\000\000\000\000\000\000\000\000\000\000\000\000\000\000\000\000\000\000\000\000\000\000\000\000\000\000\000\000\000\000\000\000\000\000\000\000\000\000\000\000\000\000\000\000\000\000\000\000\000\000\000\000\000\000\000\000\000\000\000\000\000\000\000\000\000\000\000\000\000\000\000\000\0009@\000\000\000\000\000\000\000\000\000\000\000\000\000\000\000\000\000\000\000\000\000\000\000\000\000\000\000\000\000\000\000\000\000\000\000\000\000\000\000\000\000\000\000\000\000\000\000\000\000\000\000\000\000\000\000\000\000\000\000\000\000\000>@\000\000\000\000\000\000\000\000\000\000\000\000\000\000\000\000\000\000\000\000\000\000>@\000\000\000\000\000\000\000\000\000\000\000\000\000\000T@\000\000\000\000\000\000\000\000\000\000\000\000\000\000\000\000\000\000\000\000\000\000D@\000\000\000\000\000\000\000\000\000\000\000\000\000\000\000\000\000\000\000\000\000\000\000\000\000\000\000\000\000\000>@\000\000\000\000\000\0006@\000\000\000\000\000\000\000\000\000\000\000\000\000\0009@\000\000\000\000\000\200@@\000\000\000\000\000\000\000\000\000\000\000\000\000\000\000\000\000\000\000\000\000\000\000\000\000\000\000\000\000\000\000\000\000\000\000\000\000\000\000\000\000\000\000\000\000\000\000\000\000\000\000\000\000\0004@\000\000\000\000\000\000\000\000\000\000\000\000\000\000\000\000\000\000\000\000\000\000\000\000\000\000\000\000\000\0004@\000\000\000\000\000\0004@\000\000\000\000\000\000\000\000\000\000\000\000\000\000\000\000\000\000\000\000\000\000\000\000\000\000\000\000\000\000\000\000\000\000\000\000\000\000\000\000\000\000\000\000\000\000\000\000\000\000\000\000\000\000\000\000\000\000\000\000\000\000\000\000\000\000\000\000\000\300W@\000\000\000\000\000\000\000\000\000\000\000\000\000\000)@"
      }
    }
  }
}
node {
  name: "Const_2"
  op: "Const"
  attr {
    key: "_output_shapes"
    value {
      list {
        shape {
          dim {
            size: 354
          }
        }
      }
    }
  }
  attr {
    key: "dtype"
    value {
      type: DT_DOUBLE
    }
  }
  attr {
    key: "value"
    value {
      tensor {
        dtype: DT_DOUBLE
        tensor_shape {
          dim {
            size: 354
          }
        }
        tensor_content: "\315\314\314\314\314\314#@\303\365(\\\217\302\017@\024\256G\341z\2243@\\\217\302\365(\334\'@\205\353Q\270\036\205\024@=\n\327\243p=\030@\232\231\231\231\231\0312@\232\231\231\231\231\0312@\232\231\231\231\231\0312@\\\217\302\365(\\\363?\232\231\231\231\231\0312@\341z\024\256Ga#@333333\020@\232\231\231\231\231\0312@q=\n\327\243p\001@\232\231\231\231\231\0312@\232\231\231\231\231\0312@\024\256G\341z\2243@\256G\341z\024.%@\037\205\353Q\270\036\007@\024\256G\341z\2243@{\024\256G\341z\037@\232\231\231\231\231\0312@\232\231\231\231\231\0312@\232\231\231\231\231\0312@\232\231\231\231\231\0312@\244p=\n\327\243\n@\000\000\000\000\000\000\002@\n\327\243p=\n\373?\232\231\231\231\231\0312@\256G\341z\024.%@H\341z\024\256G @\232\231\231\231\231\0312@\024\256G\341z\2243@\232\231\231\231\231\0312@\205\353Q\270\036\205\013@\232\231\231\231\231\0312@\303\365(\\\217\302\024@\000\000\000\000\000\000\364?\205\353Q\270\036\005$@\327\243p=\n\327\027@\205\353Q\270\036\005$@\205\353Q\270\036\205\024@=\n\327\243p=\000@\024\256G\341z\2243@{\024\256G\341z\037@\244p=\n\327\3435@\024\256G\341z\2243@\366(\\\217\302\365\021@H\341z\024\256G @\232\231\231\231\231\0312@\232\231\231\231\231\0312@H\341z\024\256G\013@\256G\341z\024\256\003@\232\231\231\231\231\0312@\217\302\365(\\\217\026@\232\231\231\231\231\0312@\232\231\231\231\231\0312@\232\231\231\231\231\0312@\232\231\231\231\231\0312@\244p=\n\327\243\031@H\341z\024\256G @\315\314\314\314\314\314#@q=\n\327\243p\027@H\341z\024\256G @\232\231\231\231\231\0312@\232\231\231\231\231\0312@\315\314\314\314\314\314\030@\\\217\302\365(\\\030@H\341z\024\256G @\232\231\231\231\231\0312@\244p=\n\327\3435@q=\n\327\243p\027@\024\256G\341z\2243@\232\231\231\231\231\0312@=\n\327\243p=\016@\232\231\231\231\231\0312@\205\353Q\270\036\205\035@\327\243p=\n\327\027@\232\231\231\231\231\0312@=\n\327\243p=\376?\232\231\231\231\231\0312@\327\243p=\n\327\027@R\270\036\205\353Q\370?H\341z\024\256G\030@H\341z\024\256G\013@\232\231\231\231\231\0312@\232\231\231\231\231\0312@\341z\024\256Ga#@\024\256G\341z\2243@\232\231\231\231\231\0312@\232\231\231\231\231\0312@\205\353Q\270\036\205\013@\205\353Q\270\036\205\035@\327\243p=\n\327\033@\270\036\205\353Q\270\023@q=\n\327\243p\023@\315\314\314\314\314\314#@\205\353Q\270\036\205\013@\315\314\314\314\314\314\023@\315\314\314\314\314\314#@\232\231\231\231\231\0312@\232\231\231\231\231\0312@\366(\\\217\302\365\n@\205\353Q\270\036\005$@\037\205\353Q\270\236%@\244p=\n\327\3435@q=\n\327\243p\027@333333\020@\315\314\314\314\314\314#@\037\205\353Q\270\036\007@\366(\\\217\302\365\021@\024\256G\341z\024\000@\256G\341z\024\256\003@H\341z\024\256G\013@\232\231\231\231\231\0312@\232\231\231\231\231\0312@\217\302\365(\\\217\021@\341z\024\256Ga#@\037\205\353Q\270\036!@\232\231\231\231\231\0312@q=\n\327\243p\027@\315\314\314\314\314\314\030@\232\231\231\231\231\0312@\232\231\231\231\231\0312@\205\353Q\270\036\205\013@q=\n\327\243p\027@\024\256G\341z\024.@)\\\217\302\365\250)@\024\256G\341z\2243@\244p=\n\327\3435@)\\\217\302\365(\374?{\024\256G\341z\037@\037\205\353Q\270\036\007@\217\302\365(\\\217\021@{\024\256G\341z\037@\205\353Q\270\036\205\013@\232\231\231\231\231\0312@\205\353Q\270\036\205\035@\024\256G\341z\024.@\315\314\314\314\314\314\030@\256G\341z\024.%@\354Q\270\036\205\353\t@\\\217\302\365(\\\030@\232\231\231\231\231\0312@\232\231\231\231\231\0312@\205\353Q\270\036\005$@\232\231\231\231\231\0312@q=\n\327\243p\001@\354Q\270\036\205\353\001@\341z\024\256Ga#@\232\231\231\231\231\0312@\232\231\231\231\231\0312@q=\n\327\243p\005@\232\231\231\231\231\0312@\037\205\353Q\270\036\365?\244p=\n\327\243\033@\303\365(\\\217\302\024@\256G\341z\024\256\003@\327\243p=\n\327+@\315\314\314\314\314\314\023@\217\302\365(\\\217\026@\232\231\231\231\231\0312@\232\231\231\231\231\0312@\232\231\231\231\231\0312@\244p=\n\327\3435@\232\231\231\231\231\0312@H\341z\024\256G @\205\353Q\270\036\205\035@\232\231\231\231\231\0312@H\341z\024\256G @\270\036\205\353Q\270\023@\244p=\n\327\3435@\217\302\365(\\\217\376?\244p=\n\327\3435@\037\205\353Q\270\036!@\232\231\231\231\231\0312@\315\314\314\314\314\314#@q=\n\327\243p\001@\327\243p=\n\327+@\232\231\231\231\231\0312@fffff\2469@\244p=\n\327\243\031@\024\256G\341z\2243@\232\231\231\231\231\0312@H\341z\024\256G\034@\303\365(\\\217\302\017@\256G\341z\024\256\347?\341z\024\256Ga#@333333\020@=\n\327\243p\275;@\024\256G\341z\2243@\366(\\\217\302\365\n@\244p=\n\327\243\033@q=\n\327\243p\023@\315\314\314\314\314\314\023@\244p=\n\327\243\n@H\341z\024\256G @\205\353Q\270\036\005$@H\341z\024\256G @\232\231\231\231\231\0312@\024\256G\341z\2243@\327\243p=\n\327+@\315\314\314\314\314\314\030@\037\205\353Q\270\036!@\327\243p=\n\327\027@\327\243p=\n\327\033@\327\243p=\n\327+@H\341z\024\256\307+@\232\231\231\231\231\0312@\037\205\353Q\270\236%@\024\256G\341z\2243@\232\231\231\231\231\0312@\232\231\231\231\231\0312@\024\256G\341z\2243@\024\256G\341z\2243@\315\314\314\314\314\314\030@\244p=\n\327\3435@H\341z\024\256G @q=\n\327\243p\023@\037\205\353Q\270\236%@H\341z\024\256G @\232\231\231\231\231\0312@\232\231\231\231\231\0312@\232\231\231\231\231\0312@\232\231\231\231\231\0312@\\\217\302\365(\334\'@\024\256G\341z\2243@\244p=\n\327\243\033@\327\243p=\n\327\033@q=\n\327\243p\027@\232\231\231\231\231\0312@q=\n\327\243p\005@\232\231\231\231\231\0312@333333\020@H\341z\024\256G @R\270\036\205\353Q\370?)\\\217\302\365\250)@{\024\256G\341z\037@\244p=\n\327\3435@\205\353Q\270\036\205\363?{\024\256G\341z\037@\232\231\231\231\231\0312@=\n\327\243p=\030@\303\365(\\\217\302\024@\354Q\270\036\205\353\t@\315\314\314\314\314\314\030@q=\n\327\243p\027@\232\231\231\231\231\0312@H\341z\024\256\307+@H\341z\024\256G @\024\256G\341z\2243@\205\353Q\270\036\005$@\303\365(\\\217\302\017@\232\231\231\231\231\0312@fffff\2469@\232\231\231\231\231\0312@\244p=\n\327\243\033@\232\231\231\231\231\0312@H\341z\024\256G\030@\327\243p=\n\327\033@\037\205\353Q\270\036!@\024\256G\341z\2243@\244p=\n\327\3435@\217\302\365(\\\217\026@H\341z\024\256G @\315\314\314\314\314\314\030@\000\000\000\000\000\000\020@\024\256G\341z\2243@\303\365(\\\217\302\017@\024\256G\341z\024.@\232\231\231\231\231\0312@\244p=\n\327\243\033@\232\231\231\231\231\0312@q=\n\327\243p\023@\256G\341z\024\256\003@q=\n\327\243p\001@\232\231\231\231\231\0312@R\270\036\205\353Q\370?=\n\327\243p\275;@\232\231\231\231\231\231\007@\232\231\231\231\231\0312@\\\217\302\365(\334\'@\303\365(\\\217\302\017@H\341z\024\256G\013@\024\256G\341z\2243@\244p=\n\327\3435@H\341z\024\256G @\\\217\302\365(\334\'@\244p=\n\327\243\n@q=\n\327\243p\335?\232\231\231\231\231\0312@\303\365(\\\217\302\017@\232\231\231\231\231\0312@\232\231\231\231\231\0312@\354Q\270\036\205\353\001@\037\205\353Q\270\036!@\315\314\314\314\314\314#@\315\314\314\314\314\314\030@fffff\2469@333333\020@\232\231\231\231\231\0312@\232\231\231\231\231\0312@333333\020@\256G\341z\024\256\003@\232\231\231\231\231\0312@\205\353Q\270\036\205\024@\232\231\231\231\231\0312@\232\231\231\231\231\0312@\341z\024\256Ga#@333333\020@\037\205\353Q\270\036!@\256G\341z\024.%@=\n\327\243p\275;@\270\036\205\353Q\270\023@\232\231\231\231\231\0312@\024\256G\341z\2243@\270\036\205\353Q\270\023@)\\\217\302\365\250)@\217\302\365(\\\217\376?\232\231\231\231\231\0312@H\341z\024\256G @\244p=\n\327\243\031@\232\231\231\231\231\0312@\024\256G\341z\2243@\037\205\353Q\270\236%@\270\036\205\353Q\270\023@q=\n\327\243p\027@\315\314\314\314\314\314\030@\205\353Q\270\036\205\024@q=\n\327\243p\001@\327\243p=\n\327+@\232\231\231\231\231\0312@\244p=\n\327\243\033@\341z\024\256Ga#@\232\231\231\231\231\0312@\315\314\314\314\314\314#@\303\365(\\\217\302\017@\205\353Q\270\036\205\035@fffff\2469@\037\205\353Q\270\036\007@\303\365(\\\217\302\017@\327\243p=\n\327\033@fffff\2469@\256G\341z\024\256\003@\232\231\231\231\231\0312@\256G\341z\024.%@)\\\217\302\365\250)@\232\231\231\231\231\0312@\024\256G\341z\2243@\232\231\231\231\231\0312@\205\353Q\270\036\205\367?H\341z\024\256G @H\341z\024\256G\030@"
      }
    }
  }
}
node {
  name: "Const_3"
  op: "Const"
  attr {
    key: "_output_shapes"
    value {
      list {
        shape {
          dim {
            size: 354
          }
        }
      }
    }
  }
  attr {
    key: "dtype"
    value {
      type: DT_DOUBLE
    }
  }
  attr {
    key: "value"
    value {
      tensor {
        dtype: DT_DOUBLE
        tensor_shape {
          dim {
            size: 354
          }
        }
        tensor_content: "\000\000\000\000\000\000\000\000\000\000\000\000\000\000\000\000\000\000\000\000\000\000\000\000\000\000\000\000\000\000\000\000\000\000\000\000\000\000\000\000\000\000\000\000\000\000\000\000\000\000\000\000\000\000\000\000\000\000\000\000\000\000\000\000\000\000\000\000\000\000\000\000\000\000\000\000\000\000\360?\000\000\000\000\000\000\000\000\000\000\000\000\000\000\000\000\000\000\000\000\000\000\000\000\000\000\000\000\000\000\000\000\000\000\000\000\000\000\000\000\000\000\000\000\000\000\000\000\000\000\000\000\000\000\000\000\000\000\000\000\000\000\000\000\000\000\000\000\000\000\360?\000\000\000\000\000\000\000\000\000\000\000\000\000\000\000\000\000\000\000\000\000\000\000\000\000\000\000\000\000\000\000\000\000\000\000\000\000\000\000\000\000\000\000\000\000\000\000\000\000\000\000\000\000\000\000\000\000\000\000\000\000\000\000\000\000\000\000\000\000\000\000\000\000\000\000\000\000\000\000\000\000\000\000\000\000\000\000\000\000\000\000\000\000\000\000\000\000\000\000\000\000\000\000\000\000\000\000\000\000\000\000\000\000\000\000\000\000\000\360?\000\000\000\000\000\000\000\000\000\000\000\000\000\000\000\000\000\000\000\000\000\000\000\000\000\000\000\000\000\000\000\000\000\000\000\000\000\000\000\000\000\000\000\000\000\000\000\000\000\000\000\000\000\000\000\000\000\000\000\000\000\000\000\000\000\000\000\000\000\000\000\000\000\000\000\000\000\000\000\000\000\000\000\000\000\000\000\000\000\000\000\000\000\000\000\000\000\000\000\000\000\000\000\000\000\000\000\000\000\000\000\000\000\000\000\000\000\000\000\000\000\000\000\000\000\000\000\000\000\000\000\000\000\000\000\000\000\000\000\000\000\000\000\000\000\000\000\000\000\000\000\000\000\000\000\000\000\000\000\000\000\000\000\000\000\000\000\000\000\000\000\000\000\000\000\000\000\000\000\000\000\000\000\000\000\000\000\000\000\000\000\000\000\000\000\000\000\000\000\000\000\000\000\000\000\000\000\000\000\000\000\000\000\000\000\000\000\000\000\000\000\000\000\000\000\000\000\000\000\000\000\000\000\000\000\000\000\000\000\000\000\000\000\000\000\000\000\000\000\000\000\000\000\000\000\000\000\000\000\000\000\000\000\000\000\000\000\000\000\000\000\000\000\000\000\000\000\000\000\000\000\000\000\000\000\000\000\000\000\000\000\000\000\000\000\000\000\000\000\000\000\000\000\000\000\000\000\000\000\000\000\000\000\000\000\000\000\000\000\000\000\000\000\000\000\000\000\000\000\000\000\000\000\000\000\000\000\000\000\000\000\000\000\000\000\000\000\000\000\000\000\000\000\000\000\000\000\000\000\000\000\000\000\000\000\000\000\000\000\000\000\000\000\000\000\000\000\000\000\000\000\000\000\000\000\000\000\000\000\000\000\000\000\000\000\000\000\000\000\000\000\000\000\000\000\000\000\000\000\000\000\000\000\000\000\000\000\000\000\000\000\000\000\000\000\000\000\000\000\000\000\000\000\000\000\000\000\000\000\000\000\000\000\000\000\000\000\000\000\000\000\000\000\000\000\000\000\000\000\000\000\000\360?\000\000\000\000\000\000\000\000\000\000\000\000\000\000\000\000\000\000\000\000\000\000\360?\000\000\000\000\000\000\000\000\000\000\000\000\000\000\000\000\000\000\000\000\000\000\000\000\000\000\000\000\000\000\000\000\000\000\000\000\000\000\000\000\000\000\000\000\000\000\000\000\000\000\000\000\000\000\000\000\000\000\000\000\000\000\000\000\000\000\000\000\000\000\000\000\000\000\000\000\000\000\000\000\000\000\000\000\000\000\000\000\000\000\000\000\000\000\000\000\000\000\000\000\000\000\000\000\000\000\000\000\000\000\000\000\000\000\000\000\000\000\000\000\000\000\000\000\000\000\000\000\000\000\000\000\000\000\000\000\000\000\000\000\000\000\000\000\000\000\000\000\000\000\000\000\000\000\000\000\000\000\000\000\000\000\000\000\000\000\000\000\000\000\000\000\000\000\000\000\000\000\000\000\000\000\000\000\000\000\000\000\000\000\000\000\000\000\000\000\000\000\000\000\000\000\000\000\000\000\000\000\000\000\000\000\000\000\000\000\000\000\000\000\000\000\000\000\000\000\000\000\000\000\000\000\000\000\000\000\000\000\000\000\000\000\000\000\000\000\000\000\000\000\000\000\000\000\000\000\000\000\000\000\000\000\000\000\000\000\000\000\000\000\000\000\000\000\000\000\000\000\000\000\000\000\000\000\000\000\000\000\000\000\000\000\000\000\000\000\000\000\000\000\000\000\000\000\000\000\000\000\000\000\000\000\000\000\000\000\000\000\000\000\000\000\000\000\000\000\000\000\000\000\000\000\000\000\000\000\000\000\000\000\000\000\000\000\000\000\000\000\000\000\000\000\000\000\000\000\000\000\000\000\000\000\000\000\000\000\000\000\000\000\000\000\000\000\000\000\000\000\000\000\000\000\000\000\000\000\000\000\000\000\000\000\000\000\000\000\000\000\000\000\000\000\000\000\000\000\000\000\000\000\000\000\000\000\000\000\000\000\000\000\000\000\000\000\000\000\000\000\000\000\000\000\000\000\000\000\000\000\000\000\000\000\000\000\000\000\000\000\000\000\000\000\000\000\360?\000\000\000\000\000\000\000\000\000\000\000\000\000\000\000\000\000\000\000\000\000\000\000\000\000\000\000\000\000\000\000\000\000\000\000\000\000\000\000\000\000\000\000\000\000\000\000\000\000\000\000\000\000\000\000\000\000\000\000\000\000\000\000\000\000\000\000\000\000\000\000\000\000\000\000\000\000\000\000\000\000\000\000\000\000\000\000\000\000\000\000\000\000\000\000\000\000\000\000\000\000\000\360?\000\000\000\000\000\000\000\000\000\000\000\000\000\000\000\000\000\000\000\000\000\000\000\000\000\000\000\000\000\000\000\000\000\000\000\000\000\000\000\000\000\000\000\000\000\000\000\000\000\000\000\000\000\000\000\000\000\000\000\000\000\000\000\000\000\000\000\000\000\000\000\000\000\000\000\000\000\000\000\000\000\000\000\000\000\000\000\000\000\000\000\000\000\000\000\000\000\000\000\000\000\000\000\000\000\000\000\000\000\000\000\000\000\000\000\000\000\000\000\000\000\000\000\000\000\000\000\000\000\000\000\000\000\000\000\000\000\000\000\000\000\000\360?\000\000\000\000\000\000\000\000\000\000\000\000\000\000\000\000\000\000\000\000\000\000\000\000\000\000\000\000\000\000\000\000\000\000\000\000\000\000\000\000\000\000\000\000\000\000\000\000\000\000\000\000\000\000\000\000\000\000\000\000\000\000\000\000\000\000\000\000\000\000\000\000\000\000\000\000\000\000\000\000\000\000\000\000\000\000\000\000\000\000\000\000\000\000\000\000\000\000\000\000\000\000\000\000\000\000\000\000\000\000\000\000\000\000\000\000\000\000\000\000\000\000\000\000\000\000\000\000\000\000\000\000\000\000\000\000\000\000\000\000\000\000\000\000\000\000\000\000\000\000\000\000\000\000\000\000\000\000\000\000\000\000\000\000\000\000\000\000\000\000\000\000\000\000\000\000\000\000\000\000\000\000\000\000\000\000\000\000\000\000\000\000\000\000\000\000\000\000\000\000\000\000\000\000\000\000\360?\000\000\000\000\000\000\000\000\000\000\000\000\000\000\000\000\000\000\000\000\000\000\360?\000\000\000\000\000\000\000\000\000\000\000\000\000\000\000\000\000\000\000\000\000\000\000\000\000\000\000\000\000\000\360?\000\000\000\000\000\000\000\000\000\000\000\000\000\000\000\000\000\000\000\000\000\000\000\000\000\000\000\000\000\000\000\000\000\000\000\000\000\000\000\000\000\000\000\000\000\000\000\000\000\000\000\000\000\000\000\000\000\000\000\000\000\000\000\000\000\000\000\000\000\000\000\000\000\000\000\000\000\000\000\000\000\000\000\000\000\000\000\000\000\000\000\000\000\000\000\000\000\000\000\000\000\000\000\000\000\000\000\000\000\000\000\000\000\000\000\000\000\000\000\000\000\000\000\000\000\000\000\000\000\000\000\000\000\000\000\000\000\000\000\000\000\000\000\000\000\000\000\000\000\000\000\000\000\000\000\000\000\000\000\000\000\000\000\000\000\000\000\000\000\000\000\000\000\000\000\000\000\000\000\000\000\000\000\000\000\000\000\000\000\000\000\000\000\000\000\000\000\000\000\000\000\000\000\000\000\000\000\000\000\000\000\000\000\000\000\000\000\000\000\000\000\000\000\000\000\000\000\000\000\000\000\000\000\000\000\000\000\000\000\000\000\000\000\000\000\000\000\000\000\000\000\000\000\000\000\000\000\000\000\000\000\000\000\000\000\000\000\000\000\000\000\000\000\000\000\000\000\000\000\000\000\000\000\000\000\000\360?\000\000\000\000\000\000\000\000\000\000\000\000\000\000\000\000\000\000\000\000\000\000\000\000\000\000\000\000\000\000\000\000\000\000\000\000\000\000\000\000\000\000\000\000\000\000\000\000\000\000\000\000\000\000\000\000\000\000\000\000\000\000\000\000\000\000\000\000\000\000\000\000\000\000\000\000\000\000\000\000\000\000\000\000\000\000\360?\000\000\000\000\000\000\000\000\000\000\000\000\000\000\000\000\000\000\000\000\000\000\000\000\000\000\000\000\000\000\360?\000\000\000\000\000\000\000\000\000\000\000\000\000\000\000\000\000\000\000\000\000\000\000\000\000\000\000\000\000\000\000\000\000\000\000\000\000\000\000\000\000\000\000\000\000\000\000\000\000\000\000\000\000\000\000\000\000\000\000\000\000\000\000\000\000\000\000\000\000\000\000\000\000\000\000\000\000\000\000\000\000\000\000\000\000\000\000\000\000\000\000\000\000\000\000\000\000\000\000\000\000\000\000\000\000\000\000\000\000\000\000\000\000\000\000\000\000\000\000\000\000\000\000\000\000\000\000\000\000\000\000\000\000\000\000\000\000\000\000\000\000\000\000\000\000\000\000\000\000\000\000\000\000\000\000\000\000\000\000\000\000\000\000\000\000\000\000\000\000\000\000\000\000\000\000\000\000\000\000\000\000\000\000\000\000\000\000\000\000\000\000\000\000\000\000\000\000\000\000\000\000\000\000\000\000\000\000\000\000\000\000\000\000\000\000\000\000\000\000\000\000\000\000\000\000\000\000\000\000\000\000\000\000\000\000\000\000\000\000\000\000\000\000\000\000\000\000\000\000\000\000\000\000\000\360?\000\000\000\000\000\000\000\000\000\000\000\000\000\000\000\000\000\000\000\000\000\000\000\000\000\000\000\000\000\000\000\000\000\000\000\000\000\000\000\000\000\000\000\000\000\000\000\000\000\000\000\000\000\000\000\000\000\000\000\000\000\000\000\000\000\000\000\000\000\000\000\000\000\000\000\000\000\000\000\000\000\000\000\000\000\000\000\000\000\000\000\000\000\000\000\000\000\000\000\000\000\000\000\000\000\000\000\000\000\000\360?\000\000\000\000\000\000\000\000\000\000\000\000\000\000\000\000\000\000\000\000\000\000\360?\000\000\000\000\000\000\000\000\000\000\000\000\000\000\000\000\000\000\000\000\000\000\000\000\000\000\000\000\000\000\000\000\000\000\000\000\000\000\000\000\000\000\000\000\000\000\000\000\000\000\000\000\000\000\000\000\000\000\000\000\000\000\000\000\000\000\000\000\000\000\000\000\000\000\000\000\000\000\000\000\000\000\000\000\000\000\000\000\000\000\000\000\000\000\000\000\000\000\000\000\000\000\000\000\000\000\000\000\000\000\000\000\000\000\000\000\000\000\000\000\000\000\000\000\000\000\000\000\000\000\000\000\000\000\000\000\000\000\000\000\000\000\000\000\000\000\000\000\000\000\000\000\000\000\000\000\000\000\000\000\000\000\000\000\000\000\000\000\000\000\000\000\000\000\000\000\000\000\000\000\000\000\000\000\000\000\000\000\000\000\000\000\000\000\000\000\000\000\000\000\000\000\000\000\000\000\000\000\000\000\000\000\000\000\360?\000\000\000\000\000\000\000\000\000\000\000\000\000\000\000\000\000\000\000\000\000\000\000\000\000\000\000\000\000\000\360?\000\000\000\000\000\000\000\000\000\000\000\000\000\000\360?\000\000\000\000\000\000\000\000\000\000\000\000\000\000\000\000\000\000\000\000\000\000\000\000\000\000\000\000\000\000\000\000\000\000\000\000\000\000\000\000"
      }
    }
  }
}
node {
  name: "Const_4"
  op: "Const"
  attr {
    key: "_output_shapes"
    value {
      list {
        shape {
          dim {
            size: 354
          }
        }
      }
    }
  }
  attr {
    key: "dtype"
    value {
      type: DT_DOUBLE
    }
  }
  attr {
    key: "value"
    value {
      tensor {
        dtype: DT_DOUBLE
        tensor_shape {
          dim {
            size: 354
          }
        }
        tensor_content: "\234\304 \260rh\341?Nb\020X9\264\344?\\\217\302\365(\\\343?\274t\223\030\004V\342?\313\241E\266\363\375\334?\021\307\272\270\215\006\334?\343\245\233\304 \260\342?7\211A`\345\320\346?7\211A`\345\320\346?D\213l\347\373\251\331?`\345\320\"\333\371\346?\270\036\205\353Q\270\342?R\270\036\205\353Q\340?7\211A`\345\320\346?\035Zd;\337O\335?\331\316\367S\343\245\343?ffffff\346?\\\217\302\365(\\\343?\262\235\357\247\306K\337?{\024\256G\341z\334?\254\034Zd;\337\353?\370S\343\245\233\304\340?\240\032/\335$\006\341?\256G\341z\024\256\347?J\014\002+\207\026\345?\256G\341z\024\256\347?c\177\331=yX\334?L7\211A`\345\330?\347\373\251\361\322M\332?ffffff\346?\262\235\357\247\306K\337?\236\357\247\306K7\341?\223\030\004V\016-\346?\254\034Zd;\337\353?\376\324x\351&1\344?+\207\026\331\316\367\333?\264\310v\276\237\032\343?{\024\256G\341z\340?\333\371~j\274t\333?\033/\335$\006\201\341?V\016-\262\235\357\337?\033/\335$\006\201\341?\313\241E\266\363\375\334?\217\302\365(\\\217\332?\\\217\302\365(\\\343?\370S\343\245\233\304\340?+\207\026\331\316\367\343?\\\217\302\365(\\\343?#\333\371~j\274\334?\236\357\247\306K7\341?\256G\341z\024\256\347?ffffff\346?\262\235\357\247\306K\337?\010\254\034Zd;\337?F\266\363\375\324x\345?\177j\274t\223\030\334?7\211A`\345\320\346?\331\316\367S\343\245\343?ffffff\346?\343\245\233\304 \260\342?\317\367S\343\245\233\334?\236\357\247\306K7\341?\234\304 \260rh\341?/\335$\006\201\225\333?\236\357\247\306K7\341?`\345\320\"\333\371\346?\256G\341z\024\256\347?T\343\245\233\304 \340?\203\300\312\241E\266\333?\236\357\247\306K7\341?\256G\341z\024\256\347?+\207\026\331\316\367\343?/\335$\006\201\225\333?\254\034Zd;\337\353?7\211A`\345\320\346?`\345\320\"\333\371\336?7\211A`\345\320\346?Zd;\337O\215\337?V\016-\262\235\357\337?\256G\341z\024\256\347?\372~j\274t\223\340?\256G\341z\024\256\347?V\016-\262\235\357\337?B`\345\320\"\333\331?\223\030\004V\016-\332?\262\235\357\247\306K\337?\016-\262\235\357\247\342?\223\030\004V\016-\346?\270\036\205\353Q\270\342?\254\034Zd;\337\353?F\266\363\375\324x\345?\376\324x\351&1\344?+\207\026\331\316\367\333?Zd;\337O\215\337?\031\004V\016-\262\335?1\010\254\034Zd\333?\335$\006\201\225C\333?\234\304 \260rh\341?+\207\026\331\316\367\333?\347\373\251\361\322M\332?\234\304 \260rh\341?F\266\363\375\324x\345?ffffff\346?F\266\363\375\324x\331?\033/\335$\006\201\341?;\337O\215\227n\332?+\207\026\331\316\367\343?/\335$\006\201\225\333?R\270\036\205\353Q\340?\234\304 \260rh\341?{\024\256G\341z\334?#\333\371~j\274\334?\327\243p=\n\327\333?\010\254\034Zd;\337?\262\235\357\247\306K\337?\223\030\004V\016-\346?\264\310v\276\237\032\343?}?5^\272I\334?\270\036\205\353Q\270\342?\244p=\n\327\243\340?\244p=\n\327\243\350?/\335$\006\201\225\333?\323Mb\020X9\340?F\266\363\375\324x\345?7\211A`\345\320\346?+\207\026\331\316\367\333?/\335$\006\201\225\333?\031\004V\016-\262\335?+\207\026\331\316\367\333?\254\034Zd;\337\353?+\207\026\331\316\367\343?\244p=\n\327\243\330?\370S\343\245\233\304\340?{\024\256G\341z\334?}?5^\272I\334?\370S\343\245\233\304\340?+\207\026\331\316\367\333?\356|?5^\272\345?Zd;\337O\215\337?\031\004V\016-\262\335?T\343\245\233\304 \340?\262\235\357\247\306K\337?q=\n\327\243p\335?\203\300\312\241E\266\333?ffffff\346?F\266\363\375\324x\345?\033/\335$\006\201\341?\343\245\233\304 \260\342?\035Zd;\337O\335?\232\231\231\231\231\231\331?\270\036\205\353Q\270\342?\244p=\n\327\243\350?\223\030\004V\016-\346?\376e\367\344a\241\332?ffffff\346?\347\373\251\361\322M\332?y\351&1\010\254\334?{\024\256G\341z\340?\010\254\034Zd;\337?+\207\026\331\316\367\333?\347\373\251\361\322M\332?\177j\274t\223\030\334?\366(\\\217\302\365\344?\356|?5^\272\345?\244p=\n\327\243\350?+\207\026\331\316\367\343?7\211A`\345\320\346?\236\357\247\306K7\341?Zd;\337O\215\337?\331\316\367S\343\245\343?\236\357\247\306K7\341?1\010\254\034Zd\333?+\207\026\331\316\367\343?;\337O\215\227n\332?+\207\026\331\316\367\343?\244p=\n\327\243\340?\016-\262\235\357\247\342?\234\304 \260rh\341?h\221\355|?5\336?+\207\026\331\316\367\333?\256G\341z\024\256\347?d;\337O\215\227\342?\317\367S\343\245\233\334?\254\034Zd;\337\353?\307K7\211A`\345?j\274t\223\030\004\336?Nb\020X9\264\344?=\n\327\243p=\332?\270\036\205\353Q\270\342?R\270\036\205\353Q\340?\260rh\221\355|\343?\254\034Zd;\337\353?F\266\363\375\324x\331?y\351&1\010\254\334?\335$\006\201\225C\333?\347\373\251\361\322M\332?c\177\331=yX\334?\236\357\247\306K7\341?\033/\335$\006\201\341?\236\357\247\306K7\341?\307K7\211A`\345?\\\217\302\365(\\\343?+\207\026\331\316\367\333?\323Mb\020X9\340?\244p=\n\327\243\340?V\016-\262\235\357\337?\031\004V\016-\262\335?+\207\026\331\316\367\333?\232\231\231\231\231\231\341?\256G\341z\024\256\347?;\337O\215\227n\332?\254\034Zd;\337\353?\343\245\233\304 \260\342?\264\310v\276\237\032\343?\254\034Zd;\337\353?\\\217\302\365(\\\343?T\343\245\233\304 \340?+\207\026\331\316\367\343?\236\357\247\306K7\341?\335$\006\201\225C\333?;\337O\215\227n\332?\236\357\247\306K7\341?\356|?5^\272\345?\376\324x\351&1\344?ffffff\346?7\211A`\345\320\346?\274t\223\030\004V\342?\\\217\302\365(\\\343?y\351&1\010\254\334?\031\004V\016-\262\335?/\335$\006\201\225\333?\264\310v\276\237\032\343?\376e\367\344a\241\332?\256G\341z\024\256\347?R\270\036\205\353Q\340?\236\357\247\306K7\341?B`\345\320\"\333\331?+\207\026\331\316\367\333?\370S\343\245\233\304\340?+\207\026\331\316\367\343?\230n\022\203\300\312\331?\370S\343\245\233\304\340?\264\310v\276\237\032\343?\021\307\272\270\215\006\334?{\024\256G\341z\340?q=\n\327\243p\335?T\343\245\233\304 \340?/\335$\006\201\225\333?ffffff\346?\232\231\231\231\231\231\341?\236\357\247\306K7\341?\254\034Zd;\337\353?\033/\335$\006\201\341?ffffff\342?7\211A`\345\320\346?d;\337O\215\227\342?`\345\320\"\333\371\346?y\351&1\010\254\334?\223\030\004V\016-\346?\223\030\004V\016-\332?\031\004V\016-\262\335?\244p=\n\327\243\340?\\\217\302\365(\\\343?+\207\026\331\316\367\343?\177j\274t\223\030\334?\236\357\247\306K7\341?\323Mb\020X9\340?=\n\327\243p=\332?\\\217\302\365(\\\343?Nb\020X9\264\344?\031\004V\016-\262\335?\331\316\367S\343\245\343?y\351&1\010\254\334?\240\032/\335$\006\341?\335$\006\201\225C\333?\010\254\034Zd;\337?h\221\355|?5\336?\244p=\n\327\243\350?}?5^\272I\334?\260rh\221\355|\343?1\010\254\034Zd\333?F\266\363\375\324x\345?\274t\223\030\004V\342?Nb\020X9\264\344?\262\235\357\247\306K\337?\\\217\302\365(\\\343?+\207\026\331\316\367\343?\236\357\247\306K7\341?\274t\223\030\004V\342?c\177\331=yX\334?5^\272I\014\002\333?\016-\262\235\357\247\342?Nb\020X9\264\344?\217\302\365(\\\217\342?J\014\002+\207\026\345?\232\231\231\231\231\231\331?\244p=\n\327\243\340?\234\304 \260rh\341?\323Mb\020X9\340?d;\337O\215\227\342?R\270\036\205\353Q\340?\223\030\004V\016-\346?\217\302\365(\\\217\342?R\270\036\205\353Q\340?\010\254\034Zd;\337?`\345\320\"\333\371\346?\313\241E\266\363\375\334?\223\030\004V\016-\346?\343\245\233\304 \260\342?\270\036\205\353Q\270\342?R\270\036\205\353Q\340?\244p=\n\327\243\340?\262\235\357\247\306K\337?\260rh\221\355|\343?1\010\254\034Zd\333?\244p=\n\327\243\350?\254\034Zd;\337\353?1\010\254\034Zd\333?+\207\026\331\316\367\333?;\337O\215\227n\332?ffffff\346?\236\357\247\306K7\341?\317\367S\343\245\233\334?\223\030\004V\016-\346?\\\217\302\365(\\\343?;\337O\215\227n\332?1\010\254\034Zd\333?/\335$\006\201\225\333?T\343\245\233\304 \340?\313\241E\266\363\375\334?h\221\355|?5\336?+\207\026\331\316\367\333?\223\030\004V\016-\346?y\351&1\010\254\334?\270\036\205\353Q\270\342?7\211A`\345\320\346?\234\304 \260rh\341?Nb\020X9\264\344?Zd;\337O\215\337?d;\337O\215\227\342?{\024\256G\341z\334?ffffff\342?\031\004V\016-\262\335?d;\337O\215\227\342?\010\254\034Zd;\337?\343\245\233\304 \260\342?\262\235\357\247\306K\337?+\207\026\331\316\367\333?\244p=\n\327\243\350?\254\034Zd;\337\353?\256G\341z\024\256\347?\230n\022\203\300\312\331?\236\357\247\306K7\341?\223\030\004V\016-\332?"
      }
    }
  }
}
node {
  name: "Const_5"
  op: "Const"
  attr {
    key: "_output_shapes"
    value {
      list {
        shape {
          dim {
            size: 354
          }
        }
      }
    }
  }
  attr {
    key: "dtype"
    value {
      type: DT_DOUBLE
    }
  }
  attr {
    key: "value"
    value {
      tensor {
        dtype: DT_DOUBLE
        tensor_shape {
          dim {
            size: 354
          }
        }
        tensor_content: "d;\337O\215\027\030@\221\355|?5^\033@\321\"\333\371~j\027@\223\030\004V\016-\033@m\347\373\251\361\322\031@9\264\310v\276\037\030@P\215\227n\022\003\030@m\347\373\251\361R\030@\033/\335$\006\201\031@\376\324x\351&\261\037@\'1\010\254\034\332\023@\317\367S\343\245\033\030@\024\256G\341z\024\030@\201\225C\213l\347\027@\313\241E\266\363\375\033@\354Q\270\036\205\353\033@\317\367S\343\245\233\022@\022\203\300\312\241\305\033@\356|?5^:\027@\027\331\316\367S# @J\014\002+\207\026\025@\360\247\306K7\t\030@\321\"\333\371~\352\030@\317\367S\343\245\233\030@;\337O\215\227n\026@\022\203\300\312\241E\027@sh\221\355|?\033@\035Zd;\337\317\031@\360\247\306K7\211\027@\276\237\032/\335$\024@\331\316\367S\343\245\025@\274t\223\030\004V\027@\010\254\034Zd\273\026@?5^\272I\014\024@\201\225C\213l\347\016@\347\373\251\361\322\315\033@\272I\014\002+\007\027@\254\034Zd;\337\027@\250\306K7\211\301\033@/\335$\006\201\025\030@ffffff\027@\203\300\312\241E\266\027@\024\256G\341z\224\030@q=\n\327\243p\036@\205\353Q\270\036\205\027@\240\032/\335$\206\026@?5^\272I\214\026@\317\367S\343\245\233\031@\226C\213l\347{\030@\366(\\\217\302\365\027@9\264\310v\276\237\031@\317\367S\343\245\033\025@7\211A`\345P\034@\321\"\333\371~j\026@\205\353Q\270\036\205\031@\313\241E\266\363\375\027@=\n\327\243p\275\030@\321\"\333\371~\352\030@\205\353Q\270\036\205\023@\331\316\367S\343\245\030@!\260rh\221\355\031@\262\235\357\247\306\313\027@\027\331\316\367S\343\027@\010\254\034Zd\273\031@\343\245\233\304 0\030@\276\237\032/\335\244\031@\321\"\333\371~j\027@h\221\355|?5\032@\\\217\302\365(\\\032@\031\004V\016-\262\027@5^\272I\014\202\026@\031\004V\016-\262\030@;\337O\215\227n\030@\254\034Zd;\337\025@\242E\266\363\375\324\030@\345\320\"\333\371~\033@\337O\215\227n\222\035@sh\221\355|?\031@\010\254\034Zd\273\027@\274t\223\030\004\326\031@)\\\217\302\365(\032@j\274t\223\030\204\032@w\276\237\032/\335\027@\177j\274t\223\030\035@\307K7\211A`\026@^\272I\014\002\253\031@\333\371~j\274t\030@\254\034Zd;_\031@\372~j\274t\023\030@Nb\020X9\264\023@\256G\341z\024.\032@\252\361\322Mb\020\034@T\343\245\233\304 \033@\323Mb\020X\271\031@\335$\006\201\225\303\036@\006\201\225C\213\354\031@\234\304 \260r\350\032@\370S\343\245\233D\032@=\n\327\243p\275\034@\213l\347\373\251q\033@R\270\036\205\353\321\026@\177j\274t\223\230\032@\'1\010\254\034\332\026@\331\316\367S\343%\027@Nb\020X9\264\030@{\024\256G\341\372\030@\370S\343\245\233\304\027@\207\026\331\316\367\323\033@V\016-\262\235o\027@T\343\245\233\304 \027@\000\000\000\000\000\200\032@\217\302\365(\\\017\030@\n\327\243p=\212\032@m\347\373\251\361R\037@\272I\014\002+\007\034@\004V\016-\262\235\031@T\343\245\233\304\240\032@u\223\030\004V\016\030@\217\302\365(\\\217\025@9\264\310v\276\037\033@\246\233\304 \260r\025@\246\233\304 \260\362\031@F\266\363\375\324x\032@\223\030\004V\016-\033@Zd;\337O\r\032@\323Mb\020X9\032@\201\225C\213l\347\030@\362\322Mb\020\330\030@d;\337O\215\027\031@\274t\223\030\004\326\026@\347\373\251\361\322M\031@\354Q\270\036\205\353\030@?5^\272I\014\030@H\341z\024\256G\037@d;\337O\215\227\027@\343\245\233\304 \260\030@\203\300\312\241E\266\034@\002+\207\026\331\316\030@)\\\217\302\365\250\031@\345\320\"\333\371\376\030@\364\375\324x\351\246\034@\356|?5^\272\030@\372~j\274t\223\030@!\260rh\221\355\033@\000\000\000\000\000\000\024@\215\227n\022\203@\035@\006\201\225C\213\354\026@\014\002+\207\026Y\027@J\014\002+\207\226\034@\226C\213l\347{\033@\207\026\331\316\367\323\026@\024\256G\341z\224\031@\246\233\304 \260\362\027@\266\363\375\324xi\037@F\266\363\375\324x\021@\335$\006\201\225C\033@\177j\274t\223\230\025@q=\n\327\243\360\027@\354Q\270\036\205\353\033@\031\004V\016-2\032@d;\337O\215\227\034@\366(\\\217\302u\030@\360\247\306K7\t\027@#\333\371~j\274\031@\203\300\312\241E6\027@\242E\266\363\375\324\031@\347\373\251\361\322\315\032@\305 \260rh\221\030@Nb\020X9\264\031@=\n\327\243p\275\030@\234\304 \260r\350\026@;\337O\215\227n\031@!\260rh\221m\027@\364\375\324x\351\246\026@\022\203\300\312\241\305\026@^\272I\014\002\253\030@sh\221\355|?\031@\n\327\243p=\212\032@\213l\347\373\251\361\034@\360\247\306K7\t\030@q=\n\327\243\360\031@\301\312\241E\266s\026@\347\373\251\361\322M\033@\004V\016-\262\235\025@Zd;\337O\215\020@\311v\276\237\032\257\031@m\347\373\251\361\322\034@\325x\351&1\210\031@Nb\020X9\264\027@q=\n\327\243p\033@;\337O\215\227\356\027@\260rh\221\355|\030@)\\\217\302\365(\031@\223\030\004V\016\255\030@^\272I\014\002\253\030@\205\353Q\270\036\205\032@H\341z\024\256G\037@H\341z\024\256G\026@\260rh\221\355|\027@\315\314\314\314\314\314\027@9\264\310v\276\237\023@\236\357\247\306K\267\037@5^\272I\014\202\030@X9\264\310v~ @\362\322Mb\020X\027@w\276\237\032/]\027@\006\201\225C\213l\027@)\\\217\302\365(\027@Zd;\337O\215\027@w\276\237\032/]\031@^\272I\014\002\253\031@\351&1\010\254\234\025@\242E\266\363\375T\033@+\207\026\331\316w\026@\351&1\010\254\234\023@\000\000\000\000\000\000\031@\006\201\225C\213\354\027@\272I\014\002+\007\027@\374\251\361\322Mb\030@h\221\355|?5\031@\362\322Mb\020\330\027@{\024\256G\341\372\031@\022\203\300\312\241\305\030@w\276\237\032/\335\030@\024\256G\341z\024\026@Nb\020X94\031@\254\034Zd;_\032@\335$\006\201\225C\030@\276\237\032/\335$\027@\366(\\\217\302\365\030@\254\034Zd;\337\032@\037\205\353Q\270\236\024@\305 \260rh\021 @\033/\335$\006\001\031@D\213l\347\373\251\031@\\\217\302\365(\334\027@\331\316\367S\343%\035@\004V\016-\262\035\031@u\223\030\004V\216\027@}?5^\272I\027@\345\320\"\333\371\376\034@5^\272I\014\202\031@\234\304 \260rh\033@m\347\373\251\361\322\026@\335$\006\201\225C\031@F\266\363\375\324x\027@\331\316\367S\343\245\035@\215\227n\022\203\300\031@Nb\020X94\030@\305 \260rh\221\032@L7\211A`e\026@j\274t\223\030\204\030@\\\217\302\365(\334\032@\341z\024\256G\341\035@X9\264\310v\276\031@\006\201\225C\213l\027@\240\032/\335$\006\030@\024\256G\341z\024\033@L7\211A`e\025@P\215\227n\022\203\027@\364\375\324x\351&\032@L7\211A`\345\031@\000\000\000\000\000\300 @\323Mb\020X\271\031@\'1\010\254\034\332\027@\215\227n\022\203@\027@\347\373\251\361\322\315\033@Zd;\337O\215\027@\333\371~j\274\364\035@\035Zd;\337\317\034@\370S\343\245\233\304\031@V\016-\262\235\357\031@\234\304 \260rh\026@\000\000\000\000\000\000\033@`\345\320\"\333y\032@\372~j\274t\223\030@\256G\341z\024\256\035@d;\337O\215\227\031@\020X9\264\310\366\034@\016-\262\235\357\247\025@\177j\274t\223\030\034@1\010\254\034Z\344\030@\037\205\353Q\270\036\030@u\223\030\004V\016\034@\037\205\353Q\270\236\031@-\262\235\357\247F\031@\327\243p=\nW\031@\031\004V\016-\262\032@{\024\256G\341z\030@\254\034Zd;\337\033@\000\000\000\000\000\200\037@\226C\213l\347{\027@\024\256G\341z\024\036@^\272I\014\002\253\030@Zd;\337O\215\020@\341z\024\256Ga\031@\201\225C\213lg\027@\252\361\322Mb\020\031@\016-\262\235\357\247\030@j\274t\223\030\004\030@\303\365(\\\217B\031@\035Zd;\337\317\025@sh\221\355|\277\031@\311v\276\237\032/\032@\037\205\353Q\270\236\034@\260rh\221\355|\014@\020X9\264\310\366\026@\260rh\221\355\374\026@33333\263\031@\223\030\004V\016-\027@}?5^\272I\026@\037\205\353Q\270\236\031@\004V\016-\262\235\025@7\211A`\345\320\025@\337O\215\227n\222\031@5^\272I\014\202\030@\027\331\316\367Sc\026@\341z\024\256Ga\030@\345\320\"\333\371~\027@X9\264\310v\276\027@\276\237\032/\335$\026@\'1\010\254\034\332\026@\321\"\333\371~j\033@\372~j\274t\023\022@\201\225C\213lg\030@\303\365(\\\217B\030@\006\201\225C\213l\032@\370S\343\245\233\204 @X9\264\310v\276\036@?5^\272I\014\033@\020X9\264\310v\032@\203\300\312\241E\266\032@\234\304 \260rh\027@\356|?5^\272\026@-\262\235\357\247F\026@\037\205\353Q\270\236\032@\301\312\241E\266s\030@\262\235\357\247\306\313 @\033/\335$\006\201\031@\213l\347\373\251\361\027@\364\375\324x\351\246\030@\362\322Mb\020\230 @\256G\341z\024\256\027@\362\322Mb\020\330\027@\217\302\365(\\\017\037@\303\365(\\\217B\026@\307K7\211A`\025@\276\237\032/\335$\031@\014\002+\207\026\331\030@\205\353Q\270\036\205\030@\307K7\211A\340\030@\n\327\243p=\212\034@m\347\373\251\361\322\025@\n\327\243p=\212\027@"
      }
    }
  }
}
node {
  name: "Const_6"
  op: "Const"
  attr {
    key: "_output_shapes"
    value {
      list {
        shape {
          dim {
            size: 354
          }
        }
      }
    }
  }
  attr {
    key: "dtype"
    value {
      type: DT_DOUBLE
    }
  }
  attr {
    key: "value"
    value {
      tensor {
        dtype: DT_DOUBLE
        tensor_shape {
          dim {
            size: 354
          }
        }
        tensor_content: "\232\231\231\231\231\231V@\000\000\000\000\000\000Y@33333\363V@33333SV@33333\363P@\315\314\314\314\314L7@\000\000\000\000\000\240W@\232\231\231\231\231\031U@\232\231\231\231\231\031V@\315\314\314\314\314\3148@\232\231\231\231\231\331V@\315\314\314\314\314\354S@\232\231\231\231\231\231G@\232\231\231\231\231\371U@fffff\346F@fffff\346P@\000\000\000\000\000\000Y@\232\231\231\231\231YX@fffff\346J@\000\000\000\000\000\000S@\000\000\000\000\000\200W@\232\231\231\231\231\271T@\315\314\314\314\314\254V@\000\000\000\000\000\000Y@\000\000\000\000\000\000Y@\232\231\231\231\231\031W@\232\231\231\231\231\031@@fffff\346?@\000\000\000\000\000\2002@\000\000\000\000\000@X@\232\231\231\231\231\231#@\000\000\000\000\000@L@\000\000\000\000\000\000Y@\000\000\000\000\000\000V@\000\000\000\000\000\000Y@\000\000\000\000\000\2005@\000\000\000\000\000\000Y@\000\000\000\000\000@M@\000\000\000\000\000@A@fffff\246T@\000\000\000\000\000\300D@\315\314\314\314\314\014V@333333=@ffffff/@33333SX@\000\000\000\000\000\000Y@\315\314\314\314\314\254W@\315\314\314\314\314\314W@ffffffL@\315\314\314\314\314lT@\315\314\314\314\314LX@fffff\206X@\315\314\314\314\314\214O@33333sV@\315\314\314\314\314\014X@ffffff5@\315\314\314\314\314\254X@\000\000\000\000\000\000V@\000\000\000\000\000\000Y@\232\231\231\231\231YX@\315\314\314\314\314\014@@fffff\346N@\315\314\314\314\314,S@\315\314\314\314\314\214H@333333V@\000\000\000\000\000\000Y@fffff&X@ffffff5@333333D@fffff\206W@\232\231\231\231\231yW@ffffffW@33333sA@\000\000\000\000\000\000Y@\000\000\000\000\000\300W@\232\231\231\231\231\031<@33333\323X@fffff\346<@\315\314\314\314\314\014Q@33333\263W@\232\231\231\231\231\331M@fffff\246W@333333>@fffff&C@ffffffB@fffff\206P@33333\363S@\000\000\000\000\000\000Y@33333SP@\315\314\314\314\314\354W@fffff\306X@\000\000\000\000\000`X@\315\314\314\314\314\214D@ffffff-@fffff\346I@\000\000\000\000\000\2002@\000\000\000\000\000\300@@33333\323U@33333sC@fffff\346;@\315\314\314\314\314lS@33333SW@\000\000\000\000\000@X@\232\231\231\231\231\031?@\000\000\000\000\000 R@\315\314\314\314\314\314\030@\000\000\000\000\000`W@333333\033@\315\314\314\314\314,Q@\315\314\314\314\314\354Q@fffff\346L@\315\314\314\314\314\214F@33333\263=@\315\314\314\314\314\314J@33333\223U@\000\000\000\000\000\000Y@\000\000\000\000\000\000Y@\000\000\000\000\000@H@\232\231\231\231\2319R@33333\323Q@\315\314\314\314\314\014X@\000\000\000\000\000\000*@333333T@33333\263X@\232\231\231\231\231yV@\232\231\231\231\231\031=@\315\314\314\314\314\314S@fffff\346<@\000\000\000\000\000\000\030@\000\000\000\000\000\240X@\315\314\314\314\314lX@\000\000\000\000\000\200?@fffff\246P@33333sB@fffff&J@fffff\006X@\315\314\314\314\314L:@\315\314\314\314\314\254S@\315\314\314\314\314\014D@33333SS@\232\231\231\231\231\371S@333333E@\232\231\231\231\231\031@@33333\2631@\000\000\000\000\000`V@\232\231\231\231\231yX@\315\314\314\314\314LP@\232\231\231\231\231\331M@\232\231\231\231\231\031K@33333\263G@\000\000\000\000\000\000K@\000\000\000\000\000\300V@\000\000\000\000\000\000Y@\232\231\231\231\231\231@@\315\314\314\314\314\314V@\000\000\000\000\000@D@33333\323W@33333\263F@333333M@\000\000\000\000\000\200I@33333\263;@\000\000\000\000\000\200O@\232\231\231\231\231\031H@\000\000\000\000\000\000Y@\000\000\000\000\000@V@\232\231\231\231\231\271X@\000\000\000\000\000\200V@\315\314\314\314\314\354V@fffff&J@\315\314\314\314\314,X@\000\000\000\000\000`Q@33333sJ@\315\314\314\314\314\214X@fffff\3465@\000\000\000\000\000\000X@\000\000\000\000\000\200V@33333\363I@\000\000\000\000\000\240T@\315\314\314\314\314\214D@fffff&E@\000\000\000\000\000\000Y@fffff\346W@\232\231\231\231\231\231;@\000\000\000\000\000\000Y@\000\000\000\000\000\000Y@\232\231\231\231\231\271S@fffff\346V@\232\231\231\231\231\331A@\315\314\314\314\314LE@\232\231\231\231\231\231R@33333\263X@33333SX@\315\314\314\314\314\3141@ffffff\032@\232\231\231\231\231YG@ffffff7@\000\000\000\000\000 P@fffff\206X@fffffFR@\000\000\000\000\000\200T@\000\000\000\000\000\000Y@\315\314\314\314\314\014X@ffffff2@\232\231\231\231\231\231Q@\232\231\231\231\231\371V@33333\263N@\315\314\314\314\314\014E@\000\000\000\000\000\000M@\000\000\000\000\000\000L@\232\231\231\231\231\031X@ffffff\032@\000\000\000\000\000\000Y@33333\223W@\232\231\231\231\231yX@33333sX@fffff&W@fffff\006Q@\232\231\231\231\231\231X@\232\231\231\231\2319X@\232\231\231\231\231\031@@\000\000\000\000\000\2001@\232\231\231\231\231\231W@fffff\206S@\000\000\000\000\000\000Y@\000\000\000\000\000\000Y@\315\314\314\314\314\354T@fffffFQ@\000\000\000\000\000\000Y@fffff\246@@\315\314\314\314\314L0@\000\000\000\000\000\2001@\000\000\000\000\000\000Y@fffff\346?@fffff&X@fffff\006U@\315\314\314\314\314LV@\315\314\314\314\314\014A@\000\000\000\000\000\240R@\000\000\000\000\000\200C@\232\231\231\231\231\331W@fffff\3465@33333\223W@\000\000\000\000\000\000Y@ffffff<@\315\314\314\314\314\014C@\315\314\314\314\314\3149@\232\231\231\231\2319S@\315\314\314\314\314\314!@\000\000\000\000\000\240T@fffffFU@\315\314\314\314\314lU@\000\000\000\000\000\000X@ffffffT@\315\314\314\314\314LJ@\232\231\231\231\231\371U@\000\000\000\000\000@X@33333\323W@333333\007@\000\000\000\000\000\000X@ffffff5@\232\231\231\231\231YM@fffffFX@\232\231\231\231\231yW@33333\263X@\232\231\231\231\231\331F@33333\223V@\000\000\000\000\000 V@\315\314\314\314\314\314G@33333\263V@33333sT@\315\314\314\314\314\314J@ffffffW@\000\000\000\000\000\000O@\232\231\231\231\231\271R@\232\231\231\231\231\231Q@\232\231\231\231\231\031O@\232\231\231\231\231\371Q@\000\000\000\000\000\000V@fffff\246H@33333\223X@\232\231\231\231\231\231/@\000\000\000\000\000\000Y@333333T@fffff&U@\232\231\231\231\231yR@fffff\006X@\315\314\314\314\314\214X@33333\323U@\315\314\314\314\314,S@\232\231\231\231\231\231B@\000\000\000\000\000\000@@33333\363D@\232\231\231\231\231YV@\000\000\000\000\000\000U@\000\000\000\000\000\000Y@\232\231\231\231\231\0314@\315\314\314\314\314,X@33333\263T@33333\323V@fffff\006U@\232\231\231\231\231YR@\000\000\000\000\000\000Y@\000\000\000\000\000\300R@\315\314\314\314\314\214@@\315\314\314\314\314\014W@\232\231\231\231\231\371U@\315\314\314\314\314\214P@\232\231\231\231\231\271X@33333\263R@fffff\246Q@\000\000\000\000\000 V@\232\231\231\231\231YU@fffff&V@\315\314\314\314\314,W@333333\037@\232\231\231\231\231\331T@\232\231\231\231\231\271W@fffffFP@\315\314\314\314\314LB@\000\000\000\000\000\2003@\000\000\000\000\000\000Y@fffff\206W@ffffffE@\000\000\000\000\000\000Y@\000\000\000\000\000@W@333333\037@\232\231\231\231\231\031E@\315\314\314\314\314\314 @\000\000\000\000\000\0001@33333\263E@\315\314\314\314\314\014M@\232\231\231\231\231\031?@33333sS@fffff\346@@\000\000\000\000\000`R@\315\314\314\314\314\214X@ffffffM@\000\000\000\000\000\340V@fffff&K@\232\231\231\231\231\031V@ffffffQ@\000\000\000\000\000\300P@\000\000\000\000\000\300N@\232\231\231\231\2319W@33333\323T@fffff\246Q@\000\000\000\000\000\000Y@\000\000\000\000\000\200F@\232\231\231\231\231YX@\000\000\000\000\000\000Y@\000\000\000\000\000\000Y@\315\314\314\314\314\314+@\315\314\314\314\314LB@\000\000\000\000\000\200@@"
      }
    }
  }
}
node {
  name: "Const_7"
  op: "Const"
  attr {
    key: "_output_shapes"
    value {
      list {
        shape {
          dim {
            size: 354
          }
        }
      }
    }
  }
  attr {
    key: "dtype"
    value {
      type: DT_DOUBLE
    }
  }
  attr {
    key: "value"
    value {
      tensor {
        dtype: DT_DOUBLE
        tensor_shape {
          dim {
            size: 354
          }
        }
        tensor_content: "y\351&1\010\254\006@\240\211\260\341\351\025\000@\307K7\211A`\003@\261Pk\232w\034\003@\364\375\324x\351\346\034@U0*\251\023\220\032@\373:p\316\210R\004@=\n\327\243p\275\005@(~\214\271k\211\004@\n\327\243p=\212\027@(~\214\271k\t\374?\007\360\026HP\374\003@8gDiop\014@\367u\340\234\021\245\004@\253>W[\261?\030@\245N@\023aC\004@(\017\013\265\246y\367?(~\214\271k\t\376?\361\364JY\2068\r@g\325\347j+\366\013@\361c\314]K\310\373?G\003x\013$\350\030@A\361c\314]\313\010@\033\r\340-\220\240\376?q\033\r\340-\220\364?$\271\374\207\364\333\375?,\324\232\346\035g\020@B>\350\331\254:\035@\226\262\014q\254k%@R\270\036\205\353Q\374?33333\263\014@t$\227\377\220\376\021@\221~\373:p\316\366?\245N@\023a\303\371?\317f\325\347j+\370?\263{\362\260P\353\031@\317\367S\343\245\233\366?\253>W[\261?\023@\275R\226!\216\225!@B>\350\331\254\372\005@\267b\177\331=y\017@\2068\326\305m\264\003@\212\037c\356ZB\037@\024\256G\341z\024\031@@\244\337\276\016\034\003@\243\001\274\005\022T\030@=\233U\237\253\255\377?\232\231\231\231\231\031\002@\263\352s\265\025\373\r@\271\215\006\360\026\010\021@\276\301\027&S\205\000@\2505\315;N\321\366?7\211A`\345P\013@H\277}\0358\347\007@\005\305\2171w-\366?n4\200\267@B\033@\235\021\245\275\301\027\002@\200H\277}\0358\377?;\337O\215\227n\371?\331\316\367S\343\245\001@\344\203\236\315\252\217\020@\024\256G\341z\324\022@R\270\036\205\353\321\010@u\223\030\004VN\037@\216\006\360\026H\320\021@\347\214(\355\r\276\375?\370\302d\252`T\376?9\326\305m4\000\013@\326\305m4\200\367\025@)\355\r\2760\231\021@\301\250\244N@\023\375?\'\302\206\247W\312\371?#\333\371~j\034 @\202\342\307\230\273\226\366?\236^)\313\020\307\001@\315;N\321\221\334\031@\2201w-!\237\003@\'\240\211\260\341\251\025@\213\375e\367\344\341\n@\221~\373:p\316\377?\2505\315;N\021\031@V}\256\266b\377\000@\3274\3578E\307\016@#\333\371~j<\035@\313\241E\266\363\375\031@\314]K\310\007\275\010@Y\027\267\321\000^\014@:#J{\203/\371?KY\2068\326E\003@\345\362\037\322o_\367?\312T\301\250\244N\370?\314]K\310\007=\363?;\001M\204\rO\016@\'\240\211\260\341\251\025@\236\357\247\306Kw\021@\246\nF%u\302\030@_\007\316\031Q\232\025@\341\013\223\251\202\321\014@\243\222:\001MD\022@\326\305m4\200w\024@\217\302\365(\\\217\017@\024?\306\334\265\204\365?m\347\373\251\361\322\376?\031\004V\016-r\032@\020z6\253>\327\005@.\220\240\3701&\025@\325\th\"lx\377?\000\221~\373:\320!@\314\177H\277}\235\005@\377!\375\366u \020@g\325\347j+\366\013@\241g\263\352s\265\021@\343\245\233\304 \260 @\325\347j+\366\227\t@\035\311\345?\244_\013@\323Mb\020X9\372?q=\n\327\243p\370?\202sF\224\366\006 @O\257\224e\210c\006@E\330\360\364J\331\006@\300\354\236<,\324\000@\365JY\2068\226\035@\314\356\311\303B-\n@\356|?5^\272\365?\357\311\303B\255i\006@\243\222:\001MD\022@#\333\371~j\034 @O@\023a\303S\r@\250\306K7\211\001\021@\r\340-\220\240\370\371?^\272I\014\002+\002@=\233U\237\253-\"@\313\241E\266\363=\026@g\325\347j+\366\013@\202sF\224\366\006 @Zd;\337O\315\027@\263{\362\260P\353\031@\221~\373:p\316\375?\030\225\324\th\342\022@\354Q\270\036\205\353\014@D\372\355\353\300\271\t@q\033\r\340-\220\017@t$\227\377\220~\027@\326\305m4\200\367\025@A\361c\314]K\370?\310\230\273\226\220\017\365?P\374\030s\327\022\006@g\325\347j+\366\377?\253>W[\261?\030@\344\203\236\315\252O\037@\313\020\307\272\270\r\003@{\203/L\246\n\004@$(~\214\271k\371?F\266\363\375\324x\024@\325x\351&1\010\367?J{\203/L\246 @{\024\256G\341z\027@\253>W[\261?\023@o\022\203\300\312\241\006@HP\374\030s\327\027@\326\305m4\200w\024@n4\200\267@B\033@\325x\351&1\210\010@\t\212\037c\356Z\375?(\017\013\265\246y\376?\246\233\304 \260\362\000@H\341z\024\256\307\004@\377\262{\362\260\320\017@\232\010\033\236^)\022@w\276\237\032/]\001@\254\034Zd;_\016@1\010\254\034Z$\034@\212\260\341\351\225\262\372?\316\210\322\336\340+%@\"\375\366u\340\234\374?\221\355|?5^\003@\254\213\333h\000\357\017@\n\327\243p=\212\n@J\014\002+\207\026\020@\373\313\356\311\303\002\026@\235\200&\302\206\247\377?\314\177H\277}\035\374?\210\364\333\327\201s\023@\201\004\305\2171w\371?\376\324x\351&1\362?\256\330_vO\336\023@R\'\240\211\260\341\376?\216uq\033\r`\"@\313\020\307\272\270\r\003@\373:p\316\210R\007@\210\205Z\323\274\343\375?\027\331\316\367S\343\371?\031\004V\016-r\032@\340\276\016\2343\342\026@_\007\316\031Q\232\025@\326\305m4\200w\024@\363\037\322o_\307\022@\303\323+e\031b\016@R\270\036\205\353\321\003@\354Q\270\036\205\353\017@Dio\360\205\311\362?Y\027\267\321\000^\000@\373\313\356\311\303\002\026@e\031\342X\0277\r@\343\245\233\304 \260\001@gDio\360\005\013@\236\357\247\306K\267\021@H\341z\024\256G\031@\204\rO\257\224\345\010@\372~j\274t\223\000@.\220\240\3701&\025@0L\246\nF%\365?\277\016\2343\242\264\000@\365\333\327\201sF\367?\177\373:p\316\210\365?\274\005\022\024?\306\374?\254\034Zd;_\r@\370S\343\245\233\304\002@\243\001\274\005\022\024\016@_\007\316\031Q\232\025@.\220\240\3701&\025@\375\366u\340\234\321\021@\2343\242\2647\370\376?\277\016\2343\242\264\362?+\366\227\335\223\207\370?\026\373\313\356\311C\006@\300\354\236<,\324\003@=,\324\232\346\035\374?\327\022\362A\317f\024@\236\357\247\306K\267\021@u\223\030\004VN\037@\3122\304\261.n\371?F\266\363\375\324x\024@/\335$\006\201\225\001@\010=\233U\237+\005@\224\366\006_\230\014\020@#\333\371~j<\035@\241g\263\352s5\020@\313\020\307\272\270\315\025@\212\037c\356Z\302\003@\206\311T\301\250d!@\302\027&S\005c\031@\246\233\304 \260r\367?U0*\251\023\220\032@\023\362A\317f\325\031@\353\3426\032\300\333\024@\254\034Zd;_\r@\365JY\2068\226\035@\201&\302\206\247W\001@\312\303B\255i^\013@\341\013\223\251\202\321\021@Z\365\271\332\212\375\373?\354Q\270\036\205k\005@`\345\320\"\333\371\006@I\235\200&\302\206\002@xz\245,C\034\377?<N\321\221\\\376\375?\340\276\016\2343\342\026@\221\017z6\253>\373?\313\241E\266\363\375\031@\327\243p=\nW\017@\330\201sF\224v\003@\262\235\357\247\306K\001@\000\000\000\000\000\000\375?n4\200\267@B\033@\356|?5^\272\022@\242\2647\370\302\344\006@\363\037\322o_G\035@\177\373:p\316\210\377?\204\rO\257\224\345\000@O@\023a\303S\r@\032\300[ Aq\002@\322o_\007\316Y\030@e\252`TR\247\n@_\007\316\031Q\232\025@*:\222\313\177\310\004@\t\033\236^)\313\010@0L\246\nF%\004@\327\022\362A\317&\034@\331_vO\036\026\374?\320\263Y\365\271\232\025@\005\305\2171w-\366?\n\327\243p=\n\004@q\033\r\340-\020\001@[\261\277\354\236\274\010@\315\314\314\314\314\314\000@mV}\256\266\342\000@\333\371~j\274\364\020@\315\314\314\314\314L\002@&S\005\243\222\372\024@\325\347j+\366\227\026@\230n\022\203\300\312\r@\256\330_vO\036\001@\277}\0358gD\010@}\256\266b\177\331\362?\344\203\236\315\252O\037@\t\212\037c\356\332\000@C\034\353\3426\032\n@\374\251\361\322Mb\010@\334\327\201sF\224\001@\n\327\243p=\212\n@\023\362A\317f\325\367?y\351&1\010,\007@\036\026jM\363\016\t@\355\236<,\324\232\005@\344\203\236\315\252\317\371?\327\022\362A\317\346\034@\030\225\324\th\"\372?|\362\260Pk\232\001@\025\035\311\345?$\007@0*\251\023\320\304\004@\017\2343\242\264\267\005@R\270\036\205\353Q\r@\030\225\324\th\"\375?1\010\254\034Z$\034@\271\215\006\360\026\310\005@~\0358gDi\370?\016\2760\231*X\031@\337\340\013\223\251\002\022@\316\210\322\336\340+%@\014\223\251\202QI\371?;\337O\215\227\356\020@\031\342X\027\267\021\021@\234\242#\271\374\207\372?\277}\0358gD\002@.\220\240\3701&\025@\246\nF%u\302\030@\000\221~\373:\320!@9\326\305m4\000\013@\352\225\262\014q\354\037@\366(\\\217\302\365\n@HP\374\030s\327\027@\304\261.n\243\001\370?\327\022\362A\317f\024@\373\\m\305\3762\003@HP\374\030s\327\002@\031s\327\022\362\001\020@\002+\207\026\331N\002@\232\010\033\236^)\022@\245,C\034\353\342\377?g\325\347j+\366\013@\345\362\037\322o_\003@\327\243p=\nW\017@\340-\220\240\370\261\000@!\260rh\221\355\005@5^\272I\014\202\000@\000\000\000\000\000\000\017@\337\340\013\223\251\002\022@\321\221\\\376C\372\000@\277\016\2343\242\264\366?\231*\030\225\324\t\000@[\323\274\343\024\235\036@\254\034Zd;_\016@\313\241E\266\363\375\031@"
      }
    }
  }
}
node {
  name: "Const_8"
  op: "Const"
  attr {
    key: "_output_shapes"
    value {
      list {
        shape {
          dim {
            size: 354
          }
        }
      }
    }
  }
  attr {
    key: "dtype"
    value {
      type: DT_DOUBLE
    }
  }
  attr {
    key: "value"
    value {
      tensor {
        dtype: DT_DOUBLE
        tensor_shape {
          dim {
            size: 354
          }
        }
        tensor_content: "\000\000\000\000\000\000\020@\000\000\000\000\000\000\024@\000\000\000\000\000\000\024@\000\000\000\000\000\000\360?\000\000\000\000\000\000 @\000\000\000\000\000\000\360?\000\000\000\000\000\0008@\000\000\000\000\000\0008@\000\000\000\000\000\0008@\000\000\000\000\000\000\360?\000\000\000\000\000\0008@\000\000\000\000\000\000\030@\000\000\000\000\000\000\024@\000\000\000\000\000\0008@\000\000\000\000\000\000\010@\000\000\000\000\000\0008@\000\000\000\000\000\0008@\000\000\000\000\000\000\024@\000\000\000\000\000\000\020@\000\000\000\000\000\000\000@\000\000\000\000\000\000\024@\000\000\000\000\000\000\024@\000\000\000\000\000\0008@\000\000\000\000\000\0008@\000\000\000\000\000\0008@\000\000\000\000\000\0008@\000\000\000\000\000\000\024@\000\000\000\000\000\000\360?\000\000\000\000\000\000\020@\000\000\000\000\000\0008@\000\000\000\000\000\000\020@\000\000\000\000\000\000\020@\000\000\000\000\000\0008@\000\000\000\000\000\000\024@\000\000\000\000\000\0008@\000\000\000\000\000\000\024@\000\000\000\000\000\0008@\000\000\000\000\000\000\024@\000\000\000\000\000\000\360?\000\000\000\000\000\000\030@\000\000\000\000\000\000\024@\000\000\000\000\000\000\030@\000\000\000\000\000\000 @\000\000\000\000\000\000\000@\000\000\000\000\000\000\024@\000\000\000\000\000\000\024@\000\000\000\000\000\000\020@\000\000\000\000\000\000\024@\000\000\000\000\000\000\010@\000\000\000\000\000\000\020@\000\000\000\000\000\0008@\000\000\000\000\000\0008@\000\000\000\000\000\000\000@\000\000\000\000\000\000\010@\000\000\000\000\000\0008@\000\000\000\000\000\000\020@\000\000\000\000\000\0008@\000\000\000\000\000\0008@\000\000\000\000\000\0008@\000\000\000\000\000\0008@\000\000\000\000\000\000\020@\000\000\000\000\000\000\020@\000\000\000\000\000\000\020@\000\000\000\000\000\000\034@\000\000\000\000\000\000\020@\000\000\000\000\000\0008@\000\000\000\000\000\0008@\000\000\000\000\000\000 @\000\000\000\000\000\000\034@\000\000\000\000\000\000\020@\000\000\000\000\000\0008@\000\000\000\000\000\000\020@\000\000\000\000\000\000\034@\000\000\000\000\000\000\024@\000\000\000\000\000\0008@\000\000\000\000\000\000\024@\000\000\000\000\000\0008@\000\000\000\000\000\000\024@\000\000\000\000\000\000\024@\000\000\000\000\000\0008@\000\000\000\000\000\000\360?\000\000\000\000\000\0008@\000\000\000\000\000\000\024@\000\000\000\000\000\000\000@\000\000\000\000\000\000\020@\000\000\000\000\000\000\000@\000\000\000\000\000\0008@\000\000\000\000\000\0008@\000\000\000\000\000\000\030@\000\000\000\000\000\000\024@\000\000\000\000\000\0008@\000\000\000\000\000\0008@\000\000\000\000\000\000\024@\000\000\000\000\000\000\024@\000\000\000\000\000\000\010@\000\000\000\000\000\000\030@\000\000\000\000\000\000\020@\000\000\000\000\000\000\020@\000\000\000\000\000\000\024@\000\000\000\000\000\000\020@\000\000\000\000\000\000\020@\000\000\000\000\000\0008@\000\000\000\000\000\0008@\000\000\000\000\000\000\020@\000\000\000\000\000\000\030@\000\000\000\000\000\000\020@\000\000\000\000\000\000\020@\000\000\000\000\000\000\034@\000\000\000\000\000\000\024@\000\000\000\000\000\000\020@\000\000\000\000\000\000\000@\000\000\000\000\000\000\010@\000\000\000\000\000\000\020@\000\000\000\000\000\000\010@\000\000\000\000\000\000\000@\000\000\000\000\000\0008@\000\000\000\000\000\0008@\000\000\000\000\000\000\010@\000\000\000\000\000\000\030@\000\000\000\000\000\000\024@\000\000\000\000\000\0008@\000\000\000\000\000\000\034@\000\000\000\000\000\000 @\000\000\000\000\000\0008@\000\000\000\000\000\0008@\000\000\000\000\000\000\024@\000\000\000\000\000\000\034@\000\000\000\000\000\000\020@\000\000\000\000\000\000\024@\000\000\000\000\000\000\024@\000\000\000\000\000\000\020@\000\000\000\000\000\000\360?\000\000\000\000\000\000\024@\000\000\000\000\000\000\000@\000\000\000\000\000\000\010@\000\000\000\000\000\000\024@\000\000\000\000\000\000\024@\000\000\000\000\000\0008@\000\000\000\000\000\000\024@\000\000\000\000\000\000\020@\000\000\000\000\000\000 @\000\000\000\000\000\000\020@\000\000\000\000\000\000\020@\000\000\000\000\000\000\034@\000\000\000\000\000\0008@\000\000\000\000\000\0008@\000\000\000\000\000\000\030@\000\000\000\000\000\0008@\000\000\000\000\000\000\010@\000\000\000\000\000\000\024@\000\000\000\000\000\000\030@\000\000\000\000\000\0008@\000\000\000\000\000\0008@\000\000\000\000\000\000\020@\000\000\000\000\000\0008@\000\000\000\000\000\000\024@\000\000\000\000\000\000\010@\000\000\000\000\000\000\024@\000\000\000\000\000\000\010@\000\000\000\000\000\000\020@\000\000\000\000\000\000\020@\000\000\000\000\000\000\020@\000\000\000\000\000\0008@\000\000\000\000\000\0008@\000\000\000\000\000\0008@\000\000\000\000\000\000\020@\000\000\000\000\000\0008@\000\000\000\000\000\000\020@\000\000\000\000\000\000\024@\000\000\000\000\000\0008@\000\000\000\000\000\000\020@\000\000\000\000\000\000\030@\000\000\000\000\000\000\020@\000\000\000\000\000\000\020@\000\000\000\000\000\000\020@\000\000\000\000\000\000\024@\000\000\000\000\000\0008@\000\000\000\000\000\000\020@\000\000\000\000\000\000\034@\000\000\000\000\000\000\020@\000\000\000\000\000\0008@\000\000\000\000\000\000\000@\000\000\000\000\000\000\020@\000\000\000\000\000\000\024@\000\000\000\000\000\0008@\000\000\000\000\000\000\000@\000\000\000\000\000\000\024@\000\000\000\000\000\000\000@\000\000\000\000\000\000\030@\000\000\000\000\000\000\024@\000\000\000\000\000\000\020@\000\000\000\000\000\000\024@\000\000\000\000\000\000\020@\000\000\000\000\000\000\010@\000\000\000\000\000\000\020@\000\000\000\000\000\000\020@\000\000\000\000\000\000\024@\000\000\000\000\000\000\020@\000\000\000\000\000\000\030@\000\000\000\000\000\000\020@\000\000\000\000\000\0008@\000\000\000\000\000\000\024@\000\000\000\000\000\000\020@\000\000\000\000\000\000 @\000\000\000\000\000\000\024@\000\000\000\000\000\000\024@\000\000\000\000\000\000\010@\000\000\000\000\000\000\020@\000\000\000\000\000\000\024@\000\000\000\000\000\0008@\000\000\000\000\000\000\020@\000\000\000\000\000\000\024@\000\000\000\000\000\0008@\000\000\000\000\000\0008@\000\000\000\000\000\000\024@\000\000\000\000\000\000\024@\000\000\000\000\000\000 @\000\000\000\000\000\000\020@\000\000\000\000\000\000\020@\000\000\000\000\000\000\020@\000\000\000\000\000\000\020@\000\000\000\000\000\000\020@\000\000\000\000\000\0008@\000\000\000\000\000\0008@\000\000\000\000\000\0008@\000\000\000\000\000\0008@\000\000\000\000\000\000\360?\000\000\000\000\000\000\024@\000\000\000\000\000\000\010@\000\000\000\000\000\000\010@\000\000\000\000\000\000\034@\000\000\000\000\000\0008@\000\000\000\000\000\000\020@\000\000\000\000\000\0008@\000\000\000\000\000\000\024@\000\000\000\000\000\000\020@\000\000\000\000\000\000\000@\000\000\000\000\000\000\024@\000\000\000\000\000\000\024@\000\000\000\000\000\000\020@\000\000\000\000\000\000\024@\000\000\000\000\000\000\024@\000\000\000\000\000\0008@\000\000\000\000\000\000\360?\000\000\000\000\000\000\024@\000\000\000\000\000\000\020@\000\000\000\000\000\000 @\000\000\000\000\000\000\034@\000\000\000\000\000\0008@\000\000\000\000\000\000\024@\000\000\000\000\000\000\020@\000\000\000\000\000\000\024@\000\000\000\000\000\000\030@\000\000\000\000\000\000\024@\000\000\000\000\000\0008@\000\000\000\000\000\000\000@\000\000\000\000\000\0008@\000\000\000\000\000\000\010@\000\000\000\000\000\0008@\000\000\000\000\000\000\020@\000\000\000\000\000\000\010@\000\000\000\000\000\000\024@\000\000\000\000\000\000\024@\000\000\000\000\000\000\020@\000\000\000\000\000\000\020@\000\000\000\000\000\000\020@\000\000\000\000\000\000 @\000\000\000\000\000\000\010@\000\000\000\000\000\000\024@\000\000\000\000\000\000\024@\000\000\000\000\000\000\020@\000\000\000\000\000\0008@\000\000\000\000\000\000\010@\000\000\000\000\000\0008@\000\000\000\000\000\000\020@\000\000\000\000\000\000\010@\000\000\000\000\000\000\034@\000\000\000\000\000\0008@\000\000\000\000\000\000\360?\000\000\000\000\000\000\020@\000\000\000\000\000\000\010@\000\000\000\000\000\0008@\000\000\000\000\000\000\360?\000\000\000\000\000\000\024@\000\000\000\000\000\000\000@\000\000\000\000\000\000\024@\000\000\000\000\000\000\020@\000\000\000\000\000\000\020@\000\000\000\000\000\000\360?\000\000\000\000\000\000\024@\000\000\000\000\000\000\020@\000\000\000\000\000\0008@\000\000\000\000\000\000\024@\000\000\000\000\000\0008@\000\000\000\000\000\0008@\000\000\000\000\000\000\024@\000\000\000\000\000\000\024@\000\000\000\000\000\000\020@\000\000\000\000\000\000 @\000\000\000\000\000\000\000@\000\000\000\000\000\000\024@\000\000\000\000\000\0008@\000\000\000\000\000\0008@\000\000\000\000\000\000\024@\000\000\000\000\000\000\010@\000\000\000\000\000\0008@\000\000\000\000\000\000 @\000\000\000\000\000\0008@\000\000\000\000\000\0008@\000\000\000\000\000\000\030@\000\000\000\000\000\000\024@\000\000\000\000\000\000\024@\000\000\000\000\000\000\020@\000\000\000\000\000\000\020@\000\000\000\000\000\000\030@\000\000\000\000\000\0008@\000\000\000\000\000\000\024@\000\000\000\000\000\000\030@\000\000\000\000\000\000\024@\000\000\000\000\000\000\020@\000\000\000\000\000\0008@\000\000\000\000\000\000\020@\000\000\000\000\000\000\020@\000\000\000\000\000\0008@\000\000\000\000\000\000\024@\000\000\000\000\000\000\020@\000\000\000\000\000\000\030@\000\000\000\000\000\000\034@\000\000\000\000\000\000 @\000\000\000\000\000\000 @\000\000\000\000\000\000\034@\000\000\000\000\000\000\020@\000\000\000\000\000\0008@\000\000\000\000\000\000\010@\000\000\000\000\000\000\030@\000\000\000\000\000\0008@\000\000\000\000\000\000\020@\000\000\000\000\000\000\024@\000\000\000\000\000\000\024@\000\000\000\000\000\000\000@\000\000\000\000\000\000\000@\000\000\000\000\000\000\024@\000\000\000\000\000\000\010@\000\000\000\000\000\000\000@\000\000\000\000\000\000\010@\000\000\000\000\000\0008@\000\000\000\000\000\000\020@\000\000\000\000\000\000\024@\000\000\000\000\000\0008@\000\000\000\000\000\000\024@\000\000\000\000\000\0008@\000\000\000\000\000\000\010@\000\000\000\000\000\000\020@\000\000\000\000\000\000\020@"
      }
    }
  }
}
node {
  name: "Const_9"
  op: "Const"
  attr {
    key: "_output_shapes"
    value {
      list {
        shape {
          dim {
            size: 354
          }
        }
      }
    }
  }
  attr {
    key: "dtype"
    value {
      type: DT_DOUBLE
    }
  }
  attr {
    key: "value"
    value {
      tensor {
        dtype: DT_DOUBLE
        tensor_shape {
          dim {
            size: 354
          }
        }
        tensor_content: "\000\000\000\000\000\000s@\000\000\000\000\000\200p@\000\000\000\000\0000y@\000\000\000\000\000\020q@\000\000\000\000\000\300q@\000\000\000\000\000\000s@\000\000\000\000\000\320\204@\000\000\000\000\000\320\204@\000\000\000\000\000\320\204@\000\000\000\000\000\300h@\000\000\000\000\000\320\204@\000\000\000\000\000px@\000\000\000\000\000\200r@\000\000\000\000\000\320\204@\000\000\000\000\000\300k@\000\000\000\000\000\320\204@\000\000\000\000\000\320\204@\000\000\000\000\0000y@\000\000\000\000\000Pq@\000\000\000\000\000@q@\000\000\000\000\0000y@\000\000\000\000\000ps@\000\000\000\000\000\320\204@\000\000\000\000\000\320\204@\000\000\000\000\000\320\204@\000\000\000\000\000\320\204@\000\000\000\000\000\000k@\000\000\000\000\000\300r@\000\000\000\000\000\260y@\000\000\000\000\000\320\204@\000\000\000\000\000Pq@\000\000\000\000\0000s@\000\000\000\000\000\320\204@\000\000\000\000\0000y@\000\000\000\000\000\320\204@\000\000\000\000\000\340x@\000\000\000\000\000\320\204@\000\000\000\000\000\000l@\000\000\000\000\000\360t@\000\000\000\000\000\000{@\000\000\000\000\000pq@\000\000\000\000\000\000{@\000\000\000\000\000\300q@\000\000\000\000\000\300u@\000\000\000\000\0000y@\000\000\000\000\000ps@\000\000\000\000\000P{@\000\000\000\000\0000y@\000\000\000\000\000\340n@\000\000\000\000\0000s@\000\000\000\000\000\320\204@\000\000\000\000\000\320\204@\000\000\000\000\000\340p@\000\000\000\000\000 h@\000\000\000\000\000\320\204@\000\000\000\000\000`n@\000\000\000\000\000\320\204@\000\000\000\000\000\320\204@\000\000\000\000\000\320\204@\000\000\000\000\000\320\204@\000\000\000\000\000\300o@\000\000\000\000\0000s@\000\000\000\000\000\000s@\000\000\000\000\000\240t@\000\000\000\000\0000s@\000\000\000\000\000\320\204@\000\000\000\000\000\320\204@\000\000\000\000\0000s@\000\000\000\000\000\220t@\000\000\000\000\0000s@\000\000\000\000\000\320\204@\000\000\000\000\000P{@\000\000\000\000\000\240t@\000\000\000\000\0000y@\000\000\000\000\000\320\204@\000\000\000\000\000 w@\000\000\000\000\000\320\204@\000\000\000\000\000\360q@\000\000\000\000\000pq@\000\000\000\000\000\320\204@\000\000\000\000\000`z@\000\000\000\000\000\320\204@\000\000\000\000\000pq@\000\000\000\000\000\220t@\000\000\000\000\000\220u@\000\000\000\000\000\340p@\000\000\000\000\000\320\204@\000\000\000\000\000\320\204@\000\000\000\000\000px@\000\000\000\000\0000y@\000\000\000\000\000\320\204@\000\000\000\000\000\320\204@\000\000\000\000\000\340x@\000\000\000\000\000\360q@\000\000\000\000\000\340k@\000\000\000\000\000\300r@\000\000\000\000\000\220q@\000\000\000\000\000\000s@\000\000\000\000\000\340x@\000\000\000\000\000\240n@\000\000\000\000\000\000s@\000\000\000\000\000\320\204@\000\000\000\000\000\320\204@\000\000\000\000\000\020u@\000\000\000\000\000\000{@\000\000\000\000\000\020s@\000\000\000\000\000P{@\000\000\000\000\000\240t@\000\000\000\000\000\200r@\000\000\000\000\000\000s@\000\000\000\000\000@q@\000\000\000\000\000\340n@\000\000\000\000\000\200q@\000\000\000\000\000 h@\000\000\000\000\000\340p@\000\000\000\000\000\320\204@\000\000\000\000\000\320\204@\000\000\000\000\000\000v@\000\000\000\000\000px@\000\000\000\000\000\000x@\000\000\000\000\000\320\204@\000\000\000\000\000\240t@\000\000\000\000\0000s@\000\000\000\000\000\320\204@\000\000\000\000\000\320\204@\000\000\000\000\000\340x@\000\000\000\000\000\240t@\000\000\000\000\000\340p@\000\000\000\000\000\340x@\000\000\000\000\0000y@\000\000\000\000\000P{@\000\000\000\000\000 n@\000\000\000\000\000ps@\000\000\000\000\000@q@\000\000\000\000\000\000v@\000\000\000\000\000ps@\000\000\000\000\000\340x@\000\000\000\000\000\320\204@\000\000\000\000\000\360q@\000\000\000\000\000\340p@\000\000\000\000\0000s@\000\000\000\000\000Pq@\000\000\000\000\000\340z@\000\000\000\000\000\220t@\000\000\000\000\000\320\204@\000\000\000\000\000\320\204@\000\000\000\000\000\000{@\000\000\000\000\000\320\204@\000\000\000\000\000\300k@\000\000\000\000\000`v@\000\000\000\000\000px@\000\000\000\000\000\320\204@\000\000\000\000\000\320\204@\000\000\000\000\000\000l@\000\000\000\000\000\320\204@\000\000\000\000\000\000p@\000\000\000\000\000 m@\000\000\000\000\000\000l@\000\000\000\000\000 h@\000\000\000\000\000\020r@\000\000\000\000\000\240n@\000\000\000\000\000`n@\000\000\000\000\000\320\204@\000\000\000\000\000\320\204@\000\000\000\000\000\320\204@\000\000\000\000\000P{@\000\000\000\000\000\320\204@\000\000\000\000\0000s@\000\000\000\000\000\360q@\000\000\000\000\000\320\204@\000\000\000\000\0000s@\000\000\000\000\000\300r@\000\000\000\000\000P{@\000\000\000\000\000\340t@\000\000\000\000\000P{@\000\000\000\000\000\000x@\000\000\000\000\000\320\204@\000\000\000\000\000\000s@\000\000\000\000\000\300k@\000\000\000\000\000\020r@\000\000\000\000\000\320\204@\000\000\000\000\000\200g@\000\000\000\000\000\300o@\000\000\000\000\0000y@\000\000\000\000\000\320\204@\000\000\000\000\000@n@\000\000\000\000\000\200p@\000\000\000\000\000\220s@\000\000\000\000\000px@\000\000\000\000\000\200r@\000\000\000\000\0008\206@\000\000\000\000\0000y@\000\000\000\000\000\020u@\000\000\000\000\000 m@\000\000\000\000\000\220q@\000\000\000\000\000\240n@\000\000\000\000\000\000k@\000\000\000\000\0000s@\000\000\000\000\000\000{@\000\000\000\000\0000s@\000\000\000\000\000\320\204@\000\000\000\000\0000y@\000\000\000\000\000\020r@\000\000\000\000\0000s@\000\000\000\000\000\000x@\000\000\000\000\000pq@\000\000\000\000\000\340k@\000\000\000\000\000\020r@\000\000\000\000\000@q@\000\000\000\000\000\320\204@\000\000\000\000\000\020s@\000\000\000\000\0000y@\000\000\000\000\000\320\204@\000\000\000\000\000\320\204@\000\000\000\000\0000y@\000\000\000\000\0000y@\000\000\000\000\0000s@\000\000\000\000\000P{@\000\000\000\000\0000s@\000\000\000\000\000\220q@\000\000\000\000\000\020s@\000\000\000\000\0000s@\000\000\000\000\000\320\204@\000\000\000\000\000\320\204@\000\000\000\000\000\320\204@\000\000\000\000\000\320\204@\000\000\000\000\000\020q@\000\000\000\000\0000y@\000\000\000\000\000 m@\000\000\000\000\000\340k@\000\000\000\000\000\240t@\000\000\000\000\000\320\204@\000\000\000\000\000\000l@\000\000\000\000\000\320\204@\000\000\000\000\000\200r@\000\000\000\000\0000s@\000\000\000\000\000\220t@\000\000\000\000\000\340x@\000\000\000\000\000ps@\000\000\000\000\000P{@\000\000\000\000\000@l@\000\000\000\000\000ps@\000\000\000\000\000\320\204@\000\000\000\000\000\000s@\000\000\000\000\000\000l@\000\000\000\000\000\340z@\000\000\000\000\0000s@\000\000\000\000\000\240t@\000\000\000\000\000\320\204@\000\000\000\000\000@q@\000\000\000\000\0000s@\000\000\000\000\0000y@\000\000\000\000\000\000{@\000\000\000\000\000\200p@\000\000\000\000\000\320\204@\000\000\000\000\000\200g@\000\000\000\000\000\320\204@\000\000\000\000\000 m@\000\000\000\000\000\320\204@\000\000\000\000\000\220u@\000\000\000\000\000\340k@\000\000\000\000\000\000x@\000\000\000\000\0000y@\000\000\000\000\000P{@\000\000\000\000\000`n@\000\000\000\000\0000s@\000\000\000\000\0000s@\000\000\000\000\000P}@\000\000\000\000\0000y@\000\000\000\000\000\200p@\000\000\000\000\000\340p@\000\000\000\000\000\320\204@\000\000\000\000\000 m@\000\000\000\000\000\320\204@\000\000\000\000\000\220q@\000\000\000\000\000 h@\000\000\000\000\000\300k@\000\000\000\000\000\320\204@\000\000\000\000\000\300q@\000\000\000\000\0008\206@\000\000\000\000\000\200o@\000\000\000\000\000\320\204@\000\000\000\000\000\020q@\000\000\000\000\000\200p@\000\000\000\000\000\340p@\000\000\000\000\0000y@\000\000\000\000\000P{@\000\000\000\000\0000s@\000\000\000\000\000\020q@\000\000\000\000\000\000k@\000\000\000\000\000\340o@\000\000\000\000\000\320\204@\000\000\000\000\000\200p@\000\000\000\000\000\320\204@\000\000\000\000\000\320\204@\000\000\000\000\000`v@\000\000\000\000\000\000x@\000\000\000\000\000\000s@\000\000\000\000\0000s@\000\000\000\000\000\200g@\000\000\000\000\000\200r@\000\000\000\000\000\320\204@\000\000\000\000\000\320\204@\000\000\000\000\000\200r@\000\000\000\000\000 h@\000\000\000\000\000\320\204@\000\000\000\000\000\300q@\000\000\000\000\000\320\204@\000\000\000\000\000\320\204@\000\000\000\000\000px@\000\000\000\000\000\200r@\000\000\000\000\000\000x@\000\000\000\000\000Pq@\000\000\000\000\0008\206@\000\000\000\000\000\300r@\000\000\000\000\000\320\204@\000\000\000\000\0000y@\000\000\000\000\000\300r@\000\000\000\000\000\340x@\000\000\000\000\000\340t@\000\000\000\000\000\320\204@\000\000\000\000\0000s@\000\000\000\000\000\300o@\000\000\000\000\000\320\204@\000\000\000\000\0000y@\000\000\000\000\000\020s@\000\000\000\000\000\300r@\000\000\000\000\000\240t@\000\000\000\000\0000s@\000\000\000\000\000\300q@\000\000\000\000\000\300k@\000\000\000\000\000\020r@\000\000\000\000\000\320\204@\000\000\000\000\000 m@\000\000\000\000\000px@\000\000\000\000\000\320\204@\000\000\000\000\000\000s@\000\000\000\000\000\200p@\000\000\000\000\000\360q@\000\000\000\000\000\200g@\000\000\000\000\000@q@\000\000\000\000\000\200p@\000\000\000\000\000\340k@\000\000\000\000\000\200g@\000\000\000\000\000 h@\000\000\000\000\000\320\204@\000\000\000\000\000Pq@\000\000\000\000\000\340x@\000\000\000\000\000\320\204@\000\000\000\000\0000y@\000\000\000\000\000\320\204@\000\000\000\000\000 y@\000\000\000\000\0000s@\000\000\000\000\000\220u@"
      }
    }
  }
}
node {
  name: "Const_10"
  op: "Const"
  attr {
    key: "_output_shapes"
    value {
      list {
        shape {
          dim {
            size: 354
          }
        }
      }
    }
  }
  attr {
    key: "dtype"
    value {
      type: DT_DOUBLE
    }
  }
  attr {
    key: "value"
    value {
      tensor {
        dtype: DT_DOUBLE
        tensor_shape {
          dim {
            size: 354
          }
        }
        tensor_content: "ffffff2@\000\000\000\000\000\000*@ffffff-@\000\000\000\000\000\0005@33333\2633@fffff\3460@3333334@3333334@3333334@333333+@3333334@3333333@\232\231\231\231\231\2310@3333334@33333\2632@3333334@3333334@ffffff-@\232\231\231\231\231\2312@\000\000\000\000\000\0002@ffffff-@ffffff.@3333334@3333334@3333334@3333334@\315\314\314\314\314\314-@\232\231\231\231\231\231.@\315\314\314\314\314L2@3333334@\232\231\231\231\231\2312@\000\000\000\000\000\0005@3333334@ffffff-@3333334@ffffff.@3333334@3333334@33333\2633@\315\314\314\314\314\3141@3333333@\315\314\314\314\314\3141@33333\2633@ffffff-@ffffff-@ffffff.@3333335@ffffff-@\000\000\000\000\000\2002@\000\000\000\000\000\0005@3333334@3333334@\315\314\314\314\314\3141@\315\314\314\314\314\3141@3333334@\315\314\314\314\314\3140@3333334@3333334@3333334@3333334@\232\231\231\231\231\2311@\000\000\000\000\000\0005@ffffff2@\232\231\231\231\231\0313@\000\000\000\000\000\0005@3333334@3333334@ffffff1@\232\231\231\231\231\0310@\000\000\000\000\000\0005@3333334@3333335@\232\231\231\231\231\0313@ffffff-@3333334@\232\231\231\231\231\2311@3333334@\232\231\231\231\231\2313@3333333@3333334@\315\314\314\314\314\314/@3333334@3333333@333333)@fffff\3462@\315\314\314\314\314\3141@3333334@3333334@3333333@ffffff-@3333334@3333334@ffffff.@\232\231\231\231\231\2313@\232\231\231\231\231\2312@\232\231\231\231\231\2310@\000\000\000\000\000\0003@ffffff2@ffffff.@3333333@ffffff2@3333334@3333334@\232\231\231\231\231\0310@\315\314\314\314\314\3141@3333333@3333335@\232\231\231\231\231\0313@\232\231\231\231\231\2310@ffffff2@\000\000\000\000\000\0002@\000\000\000\000\000\2002@\000\000\000\000\000\0001@\315\314\314\314\314\3141@\315\314\314\314\314\3141@3333334@3333334@\315\314\314\314\314\3142@3333333@fffff\3464@3333334@\232\231\231\231\231\0313@ffffff1@3333334@3333334@ffffff.@\232\231\231\231\231\0313@3333332@33333\2632@ffffff-@3333335@3333332@ffffff.@\000\000\000\000\000\0002@\315\314\314\314\314\3142@ffffff.@ffffff.@3333334@\232\231\231\231\231\2313@3333332@ffffff1@\232\231\231\231\231\2312@fffff\3460@\232\231\231\231\231\0310@3333334@3333334@\315\314\314\314\314\3141@3333334@33333\2632@\232\231\231\231\231\231-@3333333@3333334@3333334@ffffff-@3333334@333333.@fffff\3461@3333334@\315\314\314\314\314\3141@\000\000\000\000\000\0000@3333333@\315\314\314\314\314\3140@3333334@3333334@3333334@3333335@3333334@\000\000\000\000\000\0005@\232\231\231\231\231\2313@3333334@\000\000\000\000\000\0005@\232\231\231\231\231\2310@3333335@\000\000\000\000\000\0006@3333335@fffff\3464@3333334@ffffff2@ffffff2@\000\000\000\000\000\0000@3333334@\232\231\231\231\231\0313@\232\231\231\231\231\2311@ffffff-@3333334@\315\314\314\314\314\3141@\000\000\000\000\000\000*@\315\314\314\314\314L1@3333333@\232\231\231\231\231\2310@\232\231\231\231\231\0314@ffffff-@\232\231\231\231\231\0310@fffff\3461@\000\000\000\000\000\0003@3333333@\315\314\314\314\314\314-@\000\000\000\000\000\0005@\315\314\314\314\314\3141@\000\000\000\000\000\0005@3333334@ffffff-@\000\000\000\000\000\0000@ffffff1@fffff\3464@3333333@\232\231\231\231\231\2312@\000\000\000\000\000\0000@ffffff0@3333334@3333333@ffffff-@3333334@3333334@ffffff-@ffffff-@ffffff1@3333335@\000\000\000\000\000\0005@\000\000\000\000\000\0003@3333333@\000\000\000\000\000\0005@3333334@3333334@3333334@3333334@\000\000\000\000\000\0005@ffffff-@fffff\3461@\232\231\231\231\231\2312@\232\231\231\231\231\0313@3333334@ffffff-@3333334@\232\231\231\231\231\2310@\000\000\000\000\000\0005@333333)@33333\2632@ffffff.@3333335@fffff\3461@ffffff.@3333334@fffff\3460@3333334@fffff\3460@ffffff1@\232\231\231\231\231\0313@3333334@ffffff0@\000\000\000\000\000\0005@ffffff-@\315\314\314\314\314\3141@\000\000\000\000\000\000*@3333334@\232\231\231\231\231\0313@3333334@fffff\3461@3333334@fffff\3462@\232\231\231\231\231\2312@fffff\3464@ffffff-@3333335@\315\314\314\314\314\3140@\000\000\000\000\000\0005@ffffff1@\232\231\231\231\231\0315@ffffff-@\000\000\000\000\000\000*@3333332@3333334@fffff\3461@3333334@\000\000\000\000\000\0003@\315\314\314\314\314\3141@ffffff2@3333334@\000\000\000\000\000\000/@\232\231\231\231\231\0314@\315\314\314\314\314L2@3333334@\000\000\000\000\000\0005@\000\000\000\000\000\000*@\315\314\314\314\314\3141@ffffff-@3333335@\000\000\000\000\000\0005@\000\000\000\000\000\0005@\315\314\314\314\314\314-@\315\314\314\314\314\314,@3333334@\000\000\000\000\000\000*@3333334@3333334@\232\231\231\231\231\231-@fffff\3464@ffffff2@ffffff1@\232\231\231\231\231\0313@\232\231\231\231\231\2310@3333334@3333334@\232\231\231\231\231\2310@\315\314\314\314\314\3141@3333334@33333\2633@3333334@3333334@3333333@\232\231\231\231\231\2310@fffff\3464@\232\231\231\231\231\2312@\232\231\231\231\231\0314@\232\231\231\231\231\2310@3333334@ffffff-@\232\231\231\231\231\2310@33333\2632@\000\000\000\000\000\0006@3333334@\000\000\000\000\000\0005@\232\231\231\231\231\2311@3333334@ffffff-@3333333@\232\231\231\231\231\2310@\232\231\231\231\231\0313@ffffff1@33333\2633@ffffff2@\000\000\000\000\000\0000@3333334@fffff\3461@3333333@3333334@ffffff2@\000\000\000\000\000\000*@\232\231\231\231\231\2313@\232\231\231\231\231\0313@\000\000\000\000\000\0002@\000\000\000\000\000\000*@\232\231\231\231\231\2312@\232\231\231\231\231\0313@\315\314\314\314\314\3141@3333334@\232\231\231\231\231\2312@33333\2632@3333334@ffffff-@3333334@\000\000\000\000\000\0001@\000\000\000\000\000\0005@fffff\3462@"
      }
    }
  }
}
node {
  name: "Const_11"
  op: "Const"
  attr {
    key: "_output_shapes"
    value {
      list {
        shape {
          dim {
            size: 354
          }
        }
      }
    }
  }
  attr {
    key: "dtype"
    value {
      type: DT_DOUBLE
    }
  }
  attr {
    key: "value"
    value {
      tensor {
        dtype: DT_DOUBLE
        tensor_shape {
